// AUTO-GENERATED FROM esp32_simple_model.tflite (79% accuracy)
// Generated at: 2025-12-14 01:49:45.056490

unsigned char NEW_MODEL_79_percent[] = {
    0x20, 0x00, 0x00, 0x00, 0x54, 0x46, 0x4c, 0x33, 0x00, 0x00, 0x00, 0x00,
    0x14, 0x00, 0x20, 0x00, 0x1c, 0x00, 0x18, 0x00, 0x14, 0x00, 0x10, 0x00,
    0x0c, 0x00, 0x00, 0x00, 0x08, 0x00, 0x04, 0x00, 0x14, 0x00, 0x00, 0x00,
    0x1c, 0x00, 0x00, 0x00, 0x8c, 0x00, 0x00, 0x00, 0xe4, 0x00, 0x00, 0x00,
    0xb0, 0x21, 0x00, 0x00, 0xc0, 0x21, 0x00, 0x00, 0x38, 0x3b, 0x00, 0x00,
    0x03, 0x00, 0x00, 0x00, 0x01, 0x00, 0x00, 0x00, 0x04, 0x00, 0x00, 0x00,
    0xf6, 0xd9, 0xff, 0xff, 0x0c, 0x00, 0x00, 0x00, 0x1c, 0x00, 0x00, 0x00,
    0x3c, 0x00, 0x00, 0x00, 0x0f, 0x00, 0x00, 0x00, 0x73, 0x65, 0x72, 0x76,
    0x69, 0x6e, 0x67, 0x5f, 0x64, 0x65, 0x66, 0x61, 0x75, 0x6c, 0x74, 0x00,
    0x01, 0x00, 0x00, 0x00, 0x04, 0x00, 0x00, 0x00, 0x90, 0xff, 0xff, 0xff,
    0x28, 0x00, 0x00, 0x00, 0x04, 0x00, 0x00, 0x00, 0x08, 0x00, 0x00, 0x00,
    0x6f, 0x75, 0x74, 0x70, 0x75, 0x74, 0x5f, 0x30, 0x00, 0x00, 0x00, 0x00,
    0x01, 0x00, 0x00, 0x00, 0x04, 0x00, 0x00, 0x00, 0xf2, 0xdd, 0xff, 0xff,
    0x04, 0x00, 0x00, 0x00, 0x0c, 0x00, 0x00, 0x00, 0x6b, 0x65, 0x72, 0x61,
    0x73, 0x5f, 0x74, 0x65, 0x6e, 0x73, 0x6f, 0x72, 0x00, 0x00, 0x00, 0x00,
    0x02, 0x00, 0x00, 0x00, 0x34, 0x00, 0x00, 0x00, 0x04, 0x00, 0x00, 0x00,
    0xdc, 0xff, 0xff, 0xff, 0x2b, 0x00, 0x00, 0x00, 0x04, 0x00, 0x00, 0x00,
    0x13, 0x00, 0x00, 0x00, 0x43, 0x4f, 0x4e, 0x56, 0x45, 0x52, 0x53, 0x49,
    0x4f, 0x4e, 0x5f, 0x4d, 0x45, 0x54, 0x41, 0x44, 0x41, 0x54, 0x41, 0x00,
    0x08, 0x00, 0x0c, 0x00, 0x08, 0x00, 0x04, 0x00, 0x08, 0x00, 0x00, 0x00,
    0x2a, 0x00, 0x00, 0x00, 0x04, 0x00, 0x00, 0x00, 0x13, 0x00, 0x00, 0x00,
    0x6d, 0x69, 0x6e, 0x5f, 0x72, 0x75, 0x6e, 0x74, 0x69, 0x6d, 0x65, 0x5f,
    0x76, 0x65, 0x72, 0x73, 0x69, 0x6f, 0x6e, 0x00, 0x2c, 0x00, 0x00, 0x00,
    0xc8, 0x20, 0x00, 0x00, 0xc0, 0x20, 0x00, 0x00, 0xac, 0x20, 0x00, 0x00,
    0x98, 0x20, 0x00, 0x00, 0x88, 0x18, 0x00, 0x00, 0xb8, 0x17, 0x00, 0x00,
    0x08, 0x16, 0x00, 0x00, 0xb8, 0x15, 0x00, 0x00, 0x28, 0x15, 0x00, 0x00,
    0xd8, 0x14, 0x00, 0x00, 0xa8, 0x14, 0x00, 0x00, 0x8c, 0x14, 0x00, 0x00,
    0x70, 0x14, 0x00, 0x00, 0x54, 0x14, 0x00, 0x00, 0x38, 0x14, 0x00, 0x00,
    0x1c, 0x14, 0x00, 0x00, 0x00, 0x14, 0x00, 0x00, 0xe4, 0x13, 0x00, 0x00,
    0xd4, 0x05, 0x00, 0x00, 0x44, 0x01, 0x00, 0x00, 0x3c, 0x01, 0x00, 0x00,
    0x34, 0x01, 0x00, 0x00, 0x2c, 0x01, 0x00, 0x00, 0x24, 0x01, 0x00, 0x00,
    0x1c, 0x01, 0x00, 0x00, 0x14, 0x01, 0x00, 0x00, 0x0c, 0x01, 0x00, 0x00,
    0x04, 0x01, 0x00, 0x00, 0xfc, 0x00, 0x00, 0x00, 0xf4, 0x00, 0x00, 0x00,
    0xec, 0x00, 0x00, 0x00, 0xe4, 0x00, 0x00, 0x00, 0xdc, 0x00, 0x00, 0x00,
    0xd4, 0x00, 0x00, 0x00, 0xcc, 0x00, 0x00, 0x00, 0xc4, 0x00, 0x00, 0x00,
    0xbc, 0x00, 0x00, 0x00, 0xb4, 0x00, 0x00, 0x00, 0xac, 0x00, 0x00, 0x00,
    0xa4, 0x00, 0x00, 0x00, 0x9c, 0x00, 0x00, 0x00, 0x94, 0x00, 0x00, 0x00,
    0x74, 0x00, 0x00, 0x00, 0x04, 0x00, 0x00, 0x00, 0x1e, 0xdf, 0xff, 0xff,
    0x04, 0x00, 0x00, 0x00, 0x60, 0x00, 0x00, 0x00, 0x0c, 0x00, 0x00, 0x00,
    0x08, 0x00, 0x0e, 0x00, 0x08, 0x00, 0x04, 0x00, 0x08, 0x00, 0x00, 0x00,
    0x10, 0x00, 0x00, 0x00, 0x28, 0x00, 0x00, 0x00, 0x00, 0x00, 0x06, 0x00,
    0x08, 0x00, 0x04, 0x00, 0x06, 0x00, 0x00, 0x00, 0x04, 0x00, 0x00, 0x00,
    0x01, 0x00, 0x00, 0x00, 0xea, 0x03, 0x00, 0x00, 0x0c, 0x00, 0x18, 0x00,
    0x14, 0x00, 0x10, 0x00, 0x0c, 0x00, 0x04, 0x00, 0x0c, 0x00, 0x00, 0x00,
    0x32, 0x5e, 0x5a, 0xc4, 0x78, 0x6a, 0x86, 0x92, 0x02, 0x00, 0x00, 0x00,
    0x02, 0x00, 0x00, 0x00, 0x04, 0x00, 0x00, 0x00, 0x06, 0x00, 0x00, 0x00,
    0x32, 0x2e, 0x32, 0x30, 0x2e, 0x30, 0x00, 0x00, 0x8a, 0xdf, 0xff, 0xff,
    0x04, 0x00, 0x00, 0x00, 0x10, 0x00, 0x00, 0x00, 0x32, 0x2e, 0x34, 0x2e,
    0x30, 0x00, 0x00, 0x00, 0x00, 0x00, 0x00, 0x00, 0x00, 0x00, 0x00, 0x00,
    0x18, 0xc7, 0xff, 0xff, 0x1c, 0xc7, 0xff, 0xff, 0x20, 0xc7, 0xff, 0xff,
    0x24, 0xc7, 0xff, 0xff, 0x28, 0xc7, 0xff, 0xff, 0x2c, 0xc7, 0xff, 0xff,
    0x30, 0xc7, 0xff, 0xff, 0x34, 0xc7, 0xff, 0xff, 0x38, 0xc7, 0xff, 0xff,
    0x3c, 0xc7, 0xff, 0xff, 0x40, 0xc7, 0xff, 0xff, 0x44, 0xc7, 0xff, 0xff,
    0x48, 0xc7, 0xff, 0xff, 0x4c, 0xc7, 0xff, 0xff, 0x50, 0xc7, 0xff, 0xff,
    0x54, 0xc7, 0xff, 0xff, 0x58, 0xc7, 0xff, 0xff, 0x5c, 0xc7, 0xff, 0xff,
    0x60, 0xc7, 0xff, 0xff, 0x64, 0xc7, 0xff, 0xff, 0x68, 0xc7, 0xff, 0xff,
    0x6c, 0xc7, 0xff, 0xff, 0xfe, 0xdf, 0xff, 0xff, 0x04, 0x00, 0x00, 0x00,
    0x80, 0x04, 0x00, 0x00, 0x29, 0x2b, 0x0b, 0x5c, 0xcc, 0x7f, 0xfa, 0x3d,
    0x07, 0xc4, 0x52, 0xfd, 0xb9, 0x65, 0xed, 0x68, 0xb6, 0xec, 0xda, 0x42,
    0xcc, 0x4e, 0x14, 0xf9, 0x32, 0x2c, 0x3d, 0x3c, 0xb1, 0x09, 0xe8, 0xdc,
    0x4c, 0x3c, 0xd7, 0x78, 0xfc, 0x45, 0x06, 0x28, 0x42, 0xee, 0xaf, 0x63,
    0x29, 0x46, 0x14, 0x6e, 0x5e, 0x61, 0xf8, 0x16, 0x02, 0xe9, 0x19, 0x35,
    0x28, 0x03, 0xea, 0x32, 0x24, 0x5b, 0xfb, 0x34, 0x42, 0xd0, 0x4c, 0xf5,
    0x4f, 0x6d, 0x2b, 0x15, 0xe7, 0x44, 0x59, 0xd8, 0xea, 0x2f, 0x43, 0xe4,
    0x7f, 0x54, 0xf8, 0x51, 0x31, 0x40, 0x57, 0x30, 0xf2, 0x0d, 0x33, 0x3a,
    0x4c, 0xc5, 0x57, 0x4b, 0x31, 0xfe, 0xea, 0x18, 0x3a, 0xe7, 0x38, 0xc4,
    0x60, 0x68, 0xe0, 0x4a, 0x42, 0xed, 0xf2, 0xc8, 0x79, 0x6e, 0xdf, 0x18,
    0x4c, 0x28, 0x25, 0x08, 0xf5, 0x0e, 0xeb, 0xfd, 0x75, 0xcd, 0x25, 0xcf,
    0xda, 0x0e, 0x3d, 0xe3, 0x4a, 0x0e, 0x35, 0xb8, 0x42, 0x55, 0x53, 0xf1,
    0xfd, 0xf4, 0x56, 0x10, 0x03, 0x28, 0x07, 0xf5, 0x55, 0x1e, 0x6e, 0x48,
    0x4d, 0x1a, 0x64, 0x0c, 0x4b, 0xfb, 0xf5, 0xf9, 0x6b, 0x65, 0xf7, 0xd8,
    0x47, 0x05, 0x0d, 0x0c, 0x64, 0xfa, 0x51, 0xf2, 0x36, 0xb5, 0x46, 0x5c,
    0xe4, 0x06, 0x08, 0xff, 0x28, 0xe1, 0x1d, 0x5f, 0x3d, 0xfa, 0x1f, 0xe2,
    0x11, 0x00, 0x55, 0x42, 0x56, 0x43, 0x30, 0xe0, 0x6e, 0x28, 0x0f, 0xe3,
    0x30, 0xf4, 0x58, 0x18, 0x7f, 0x3e, 0xe7, 0xd2, 0x1b, 0xff, 0xfd, 0x59,
    0x0d, 0xf3, 0xe2, 0xe6, 0x39, 0x64, 0x19, 0x66, 0x13, 0x27, 0x43, 0x0f,
    0x3f, 0x59, 0x7f, 0xe7, 0xf6, 0xd4, 0x7a, 0x34, 0xf9, 0x3f, 0xdd, 0x3d,
    0x24, 0xb3, 0x19, 0x06, 0x3a, 0xdf, 0x71, 0x2f, 0x62, 0x46, 0x59, 0xc4,
    0x7a, 0x20, 0x43, 0x5d, 0xff, 0x05, 0x6f, 0x29, 0x67, 0xdb, 0x45, 0x65,
    0x2b, 0xcc, 0x63, 0x58, 0x76, 0x70, 0xe9, 0x12, 0xf6, 0xc1, 0xcb, 0x1f,
    0x24, 0x50, 0x46, 0x07, 0x3d, 0xc5, 0xe5, 0x50, 0x2d, 0x24, 0x4c, 0xae,
    0xfe, 0x16, 0x42, 0x62, 0x2e, 0xd0, 0x01, 0x6e, 0x39, 0x44, 0x63, 0x4d,
    0x74, 0x59, 0x35, 0x7b, 0x06, 0x22, 0x38, 0x65, 0x28, 0x72, 0x29, 0x69,
    0xef, 0x8a, 0x12, 0x00, 0x51, 0x28, 0x61, 0x53, 0x6d, 0xd0, 0xd5, 0x52,
    0x21, 0x4f, 0x07, 0x48, 0x7f, 0x0c, 0x6b, 0x3d, 0xf7, 0x0e, 0x22, 0xe1,
    0x34, 0x2c, 0x01, 0xe5, 0xda, 0x24, 0x0b, 0xf3, 0x63, 0x38, 0x5d, 0x44,
    0x35, 0x74, 0xf4, 0xf8, 0x0d, 0xd9, 0xeb, 0x34, 0x1a, 0xf9, 0xf8, 0xb9,
    0x4b, 0x9a, 0xbc, 0xf2, 0xdc, 0x41, 0x41, 0x2b, 0x4a, 0x3d, 0x18, 0x08,
    0x02, 0x27, 0x48, 0x49, 0x72, 0xad, 0xdb, 0x55, 0xda, 0x02, 0x50, 0x1e,
    0xfa, 0xac, 0x19, 0xf0, 0x0a, 0xd7, 0xf3, 0x00, 0x7b, 0x3c, 0x13, 0x4e,
    0x40, 0x49, 0x3d, 0xd5, 0x33, 0xf8, 0x05, 0x1d, 0x3e, 0xf3, 0xf2, 0xff,
    0x79, 0xdc, 0x29, 0x32, 0x43, 0x4f, 0xfc, 0x1b, 0x22, 0x99, 0x57, 0xea,
    0x07, 0xe3, 0x0c, 0xe4, 0x79, 0x23, 0x1c, 0x5c, 0x15, 0x3d, 0x32, 0x57,
    0x7f, 0x46, 0xf9, 0x53, 0xef, 0xd7, 0x61, 0x4b, 0x6c, 0xe1, 0x06, 0xd7,
    0x27, 0x57, 0x52, 0x38, 0x22, 0xef, 0x75, 0x0b, 0x55, 0xe6, 0x4e, 0x32,
    0x6d, 0x32, 0x4c, 0x16, 0x4f, 0xf6, 0x3d, 0x42, 0x7f, 0xce, 0x25, 0xe2,
    0x60, 0x0d, 0x20, 0x55, 0x6a, 0xfd, 0xfc, 0xe7, 0x71, 0x22, 0x26, 0x3b,
    0x3c, 0xcc, 0x59, 0x45, 0x38, 0x1d, 0x4e, 0x02, 0xfa, 0xe7, 0x09, 0x41,
    0x3d, 0xe3, 0x35, 0x3c, 0x48, 0x5b, 0x32, 0xe6, 0x31, 0x6f, 0xe7, 0x4a,
    0x13, 0xc4, 0xde, 0x0c, 0xef, 0xd5, 0x3e, 0x4e, 0xe7, 0x7e, 0x3c, 0x03,
    0xbc, 0x3a, 0xe1, 0x43, 0xaa, 0x0f, 0xe6, 0x2a, 0x27, 0x29, 0x54, 0x0b,
    0xfc, 0x63, 0xfd, 0x42, 0x20, 0x16, 0x01, 0x75, 0xb6, 0x76, 0x2a, 0x64,
    0x15, 0x41, 0xc9, 0x4d, 0xf0, 0x1a, 0xe1, 0x3b, 0x3b, 0x18, 0xd7, 0x12,
    0x54, 0x5a, 0xe5, 0x7e, 0x4b, 0x43, 0xd2, 0x65, 0x0f, 0x23, 0x2d, 0x1f,
    0x07, 0x17, 0xb1, 0x6a, 0x50, 0x39, 0xb9, 0x27, 0xed, 0x29, 0x00, 0x26,
    0x13, 0x7f, 0x06, 0x77, 0x02, 0x60, 0xfd, 0x11, 0x7a, 0x06, 0x13, 0x31,
    0x23, 0x36, 0x29, 0x36, 0x7f, 0x05, 0x6a, 0xd9, 0xe9, 0xe0, 0xff, 0x42,
    0x11, 0x52, 0x44, 0xfe, 0x12, 0x32, 0x4f, 0xf5, 0x71, 0xc3, 0x10, 0x3e,
    0x52, 0x6e, 0x39, 0x18, 0xf9, 0xd0, 0x54, 0xdf, 0x12, 0x07, 0x43, 0xdb,
    0x59, 0x31, 0xfb, 0x5d, 0x58, 0x39, 0x3b, 0x0a, 0x41, 0x30, 0xea, 0xf8,
    0x1d, 0x00, 0xef, 0xfd, 0x04, 0xd6, 0x34, 0x13, 0x3b, 0x09, 0xf5, 0x09,
    0x2f, 0xc7, 0x20, 0x2e, 0xe1, 0x25, 0x04, 0x29, 0x19, 0x3d, 0x3f, 0xd5,
    0x52, 0x01, 0xe0, 0x23, 0x07, 0x0c, 0x22, 0x04, 0xf9, 0x30, 0x5a, 0x4e,
    0x7c, 0xa6, 0xf9, 0x7a, 0x68, 0x60, 0xed, 0x39, 0x04, 0xaa, 0xed, 0x69,
    0x2b, 0x5c, 0xbc, 0x9e, 0x53, 0xf0, 0xbd, 0x34, 0x68, 0x4c, 0xd5, 0xb8,
    0x7f, 0xea, 0x01, 0x27, 0x2c, 0x54, 0x0f, 0xb8, 0x04, 0x50, 0x26, 0x48,
    0x67, 0x5c, 0x1d, 0xb2, 0x56, 0x42, 0x4a, 0xda, 0x34, 0xf4, 0xec, 0x05,
    0x55, 0xc6, 0xf4, 0x39, 0x48, 0x10, 0x11, 0xef, 0x0d, 0xd0, 0xdf, 0xfd,
    0x26, 0xde, 0x58, 0x29, 0xf9, 0xdc, 0x67, 0x43, 0xfd, 0xde, 0x2a, 0xd6,
    0x7f, 0xea, 0x14, 0xe1, 0xe2, 0x1a, 0x35, 0x1a, 0x04, 0x05, 0x4a, 0x63,
    0xfc, 0x10, 0x0c, 0x5d, 0x71, 0x30, 0x53, 0xf6, 0x47, 0x58, 0x0b, 0x40,
    0x62, 0xaf, 0x38, 0x26, 0x3e, 0x64, 0x71, 0x01, 0x2e, 0x23, 0x2a, 0x2a,
    0xc6, 0x1e, 0x3e, 0x30, 0xe8, 0x53, 0xfc, 0xd0, 0xc5, 0x26, 0x51, 0x6a,
    0x78, 0x4e, 0x66, 0xd9, 0x09, 0x9a, 0xc4, 0xd1, 0xab, 0xa1, 0xd3, 0xcd,
    0x30, 0xcf, 0x3c, 0x47, 0x29, 0x3d, 0x1c, 0x04, 0xcb, 0x91, 0x30, 0xde,
    0xa0, 0xa1, 0x5a, 0xf9, 0xb0, 0x1e, 0x41, 0x31, 0xa0, 0xdd, 0x1e, 0xd3,
    0xa3, 0x0e, 0x4a, 0x8e, 0x10, 0x86, 0xe9, 0x39, 0x43, 0x1b, 0x2b, 0x93,
    0x54, 0xc9, 0xa1, 0xb1, 0x55, 0x98, 0x4a, 0xa9, 0xd2, 0xa1, 0xb2, 0xc9,
    0x06, 0xc8, 0x01, 0xc3, 0xef, 0xa8, 0x25, 0x60, 0x15, 0x98, 0x0e, 0xbb,
    0x4c, 0xc8, 0x0c, 0x81, 0x35, 0xe1, 0x55, 0x11, 0x74, 0x3e, 0x4c, 0xc6,
    0xd8, 0x5c, 0x6f, 0xd8, 0xf0, 0xd1, 0x50, 0xcc, 0x1e, 0x58, 0x0c, 0xfe,
    0x40, 0xdd, 0x16, 0xee, 0x6c, 0x65, 0x38, 0x55, 0x34, 0xcb, 0xfb, 0x07,
    0x51, 0x30, 0x4b, 0xe3, 0x0c, 0x19, 0xf4, 0x49, 0x33, 0x35, 0xe9, 0xc7,
    0x5f, 0xea, 0x1d, 0x5e, 0x3c, 0x63, 0x0f, 0xed, 0x35, 0x09, 0x08, 0xe8,
    0x22, 0x44, 0x5d, 0xfe, 0x28, 0x4c, 0xd8, 0x22, 0x45, 0xfc, 0xfe, 0xfc,
    0x7f, 0x03, 0x2d, 0x44, 0x09, 0x4c, 0x2e, 0xda, 0xe7, 0x12, 0x7f, 0xfb,
    0x17, 0x2d, 0x75, 0x58, 0x3f, 0x01, 0x6e, 0x11, 0x34, 0x6e, 0x72, 0x19,
    0x7c, 0x53, 0x5e, 0x4b, 0x6a, 0xec, 0x00, 0xdf, 0xf0, 0xc5, 0x6d, 0x1c,
    0xde, 0x57, 0x25, 0xff, 0x31, 0xea, 0x49, 0x79, 0x65, 0x63, 0xee, 0x31,
    0xf7, 0xa1, 0x53, 0xe8, 0x29, 0xef, 0x42, 0x24, 0xfb, 0xeb, 0x43, 0x7b,
    0x70, 0x07, 0xf0, 0x28, 0x0f, 0xe6, 0xfb, 0x23, 0x34, 0x58, 0x14, 0x42,
    0x56, 0x1e, 0x58, 0x09, 0x73, 0x59, 0x0c, 0x52, 0x79, 0xa3, 0x04, 0x6f,
    0x66, 0x45, 0x49, 0xcd, 0x5b, 0xa2, 0x0e, 0x70, 0x09, 0x78, 0x03, 0x02,
    0x77, 0xcc, 0x2f, 0x5b, 0xfb, 0x03, 0x4f, 0x21, 0x10, 0x41, 0xf0, 0x36,
    0x20, 0x64, 0xcf, 0x47, 0x3e, 0xfd, 0xfd, 0x30, 0xf5, 0x71, 0xc7, 0x10,
    0x7f, 0xcf, 0xb5, 0xff, 0xeb, 0x40, 0xc0, 0xfa, 0x4a, 0xed, 0xd0, 0x3a,
    0xf3, 0x66, 0x10, 0xfd, 0xf0, 0xed, 0x41, 0x75, 0x1b, 0x20, 0x23, 0xbd,
    0x47, 0x17, 0x08, 0x6d, 0x74, 0x2b, 0x74, 0x5a, 0x2e, 0xff, 0x7e, 0x49,
    0x3c, 0x6e, 0x0b, 0x3d, 0x33, 0x98, 0x45, 0x4d, 0x48, 0x50, 0x5c, 0xde,
    0x04, 0xed, 0x42, 0x13, 0x29, 0x37, 0x14, 0x4f, 0x3a, 0x35, 0x61, 0xfb,
    0x42, 0xda, 0x7c, 0xf9, 0x7b, 0x1c, 0x05, 0xee, 0xd2, 0x40, 0xe3, 0x62,
    0x7f, 0xde, 0xf9, 0x46, 0x70, 0xe1, 0x5f, 0x4d, 0x37, 0xc6, 0xf7, 0xe8,
    0x57, 0x47, 0x6a, 0x02, 0x04, 0xae, 0xe8, 0x59, 0xdb, 0xfb, 0x56, 0xb6,
    0xfd, 0x3f, 0xd3, 0x6d, 0x8a, 0xe4, 0xff, 0xff, 0x04, 0x00, 0x00, 0x00,
    0x00, 0x0e, 0x00, 0x00, 0x93, 0xc7, 0xb4, 0xec, 0xd4, 0x46, 0x66, 0xf6,
    0xec, 0x83, 0xb6, 0x45, 0x61, 0xea, 0x4b, 0xcc, 0xbf, 0xf6, 0x10, 0x01,
    0xe2, 0x3f, 0x50, 0xa4, 0x44, 0xbb, 0x1c, 0x37, 0x55, 0xe8, 0xf5, 0x2d,
    0xe7, 0x9e, 0x1d, 0xc0, 0x86, 0x36, 0xb8, 0xfe, 0x99, 0xe9, 0xa0, 0x13,
    0x10, 0x57, 0xae, 0x8e, 0x90, 0x66, 0xca, 0xf3, 0xd0, 0x88, 0xa5, 0x3b,
    0x3d, 0x3c, 0x1e, 0xf7, 0xe3, 0x1c, 0x2f, 0x5f, 0xd1, 0x37, 0x5c, 0xe3,
    0x64, 0x53, 0x3e, 0x94, 0x58, 0xc9, 0x25, 0x2a, 0xc0, 0x5f, 0xa0, 0xa2,
    0x81, 0x39, 0x14, 0x4f, 0xe6, 0xe2, 0xcb, 0x66, 0xd8, 0x9b, 0xdf, 0x40,
    0xea, 0xdd, 0x4d, 0x98, 0xea, 0x3c, 0x19, 0x81, 0xfd, 0xf1, 0x42, 0xaf,
    0x44, 0xe5, 0xf2, 0xbc, 0xe4, 0x23, 0x2f, 0x1e, 0xd7, 0xe2, 0x5b, 0x6d,
    0x43, 0x48, 0x5f, 0x26, 0xb6, 0x0e, 0x0c, 0x1d, 0x2f, 0xed, 0x08, 0x0f,
    0xfc, 0xee, 0xcf, 0xaa, 0x11, 0x36, 0x05, 0x29, 0x3f, 0x2d, 0xf9, 0x55,
    0xcb, 0x02, 0x13, 0xad, 0xfb, 0x15, 0xd8, 0x9b, 0xde, 0x50, 0x02, 0x89,
    0x13, 0xc3, 0xf7, 0xf5, 0x2b, 0xe5, 0x22, 0x19, 0x33, 0xe7, 0xaf, 0xed,
    0x22, 0x52, 0x56, 0x31, 0x2d, 0x35, 0xed, 0xec, 0x02, 0x26, 0xc9, 0x5f,
    0x59, 0x3f, 0x17, 0xfc, 0x2f, 0x37, 0x7f, 0x4c, 0x2e, 0x53, 0xc8, 0xe0,
    0x71, 0x51, 0xe1, 0x6d, 0x90, 0x3d, 0xfc, 0x0a, 0xc3, 0x0d, 0x34, 0x96,
    0x77, 0x43, 0x35, 0xab, 0x03, 0x68, 0x32, 0x3b, 0xc2, 0x10, 0xf0, 0xa0,
    0x9f, 0xea, 0xa5, 0xee, 0xd9, 0xdf, 0xb6, 0x38, 0xab, 0x0c, 0x3d, 0xa1,
    0xd9, 0xb0, 0x4d, 0xc9, 0xf6, 0x0c, 0x65, 0xf9, 0x2c, 0xb6, 0xe2, 0x49,
    0xc7, 0x4d, 0x54, 0x37, 0x5f, 0xc4, 0xd3, 0xc3, 0x50, 0xb5, 0xe7, 0x01,
    0x17, 0x08, 0x6e, 0xcd, 0xb5, 0xe9, 0x78, 0xb7, 0xa5, 0xc3, 0xa4, 0xa7,
    0x63, 0x51, 0x53, 0xf7, 0xa4, 0x46, 0x35, 0xf4, 0xa4, 0xe2, 0x16, 0xcf,
    0xeb, 0xd7, 0xd4, 0x25, 0xb8, 0x00, 0x41, 0x0d, 0xe9, 0x81, 0x47, 0xb8,
    0xbe, 0x4c, 0xf1, 0x54, 0x77, 0x1e, 0xa1, 0x3a, 0x50, 0x7b, 0x6f, 0xf6,
    0x1c, 0x3e, 0xc1, 0x0f, 0x49, 0x54, 0x35, 0xca, 0xfd, 0x32, 0x23, 0x2a,
    0x45, 0xb3, 0xc6, 0xd5, 0xf7, 0xc6, 0x66, 0x17, 0xf8, 0xe4, 0x33, 0x74,
    0x05, 0xab, 0xe2, 0x9f, 0xe6, 0xd4, 0xb5, 0x9c, 0xaa, 0x8b, 0xdf, 0xd0,
    0x8c, 0x0b, 0x72, 0xb8, 0x04, 0xff, 0xfc, 0xf4, 0x67, 0x00, 0xf0, 0xde,
    0xf3, 0xf3, 0x66, 0xe3, 0x7f, 0x52, 0x16, 0x1d, 0x02, 0x31, 0x2f, 0x3d,
    0xfe, 0x57, 0x10, 0xe2, 0x6c, 0xfd, 0x59, 0xc5, 0xfe, 0x4d, 0x43, 0x7e,
    0x4e, 0x6d, 0xe7, 0x54, 0x4b, 0x6d, 0xe7, 0xfc, 0xff, 0x57, 0xf1, 0xe7,
    0xfc, 0x00, 0x3d, 0x23, 0x52, 0x66, 0x3d, 0x4e, 0x62, 0xe2, 0x26, 0x29,
    0x69, 0x18, 0x19, 0xdd, 0x3b, 0x75, 0x4d, 0x6c, 0xca, 0x16, 0x3f, 0x2f,
    0x09, 0xf4, 0x41, 0x41, 0x21, 0x6a, 0x3c, 0x3e, 0x49, 0x27, 0xde, 0xe5,
    0xc1, 0x18, 0xfa, 0xfb, 0x3a, 0x4b, 0x27, 0xc5, 0x77, 0x7f, 0x63, 0xfc,
    0xea, 0x3b, 0x68, 0xf0, 0x22, 0x08, 0x68, 0x6e, 0x01, 0x18, 0x7d, 0xf3,
    0xef, 0x20, 0x23, 0x4a, 0x34, 0x1b, 0x39, 0xf4, 0xb2, 0xae, 0xd2, 0xe3,
    0x0b, 0xf4, 0xdf, 0xa8, 0xd5, 0x82, 0xf3, 0x1b, 0x91, 0x2f, 0x64, 0x38,
    0x64, 0x69, 0x5f, 0x06, 0xd6, 0x30, 0x07, 0xeb, 0x2f, 0x12, 0x39, 0x84,
    0xbb, 0x56, 0x64, 0xc6, 0x4c, 0x2b, 0xc1, 0x0d, 0xaa, 0x8b, 0x41, 0xeb,
    0x96, 0xbe, 0x0a, 0x55, 0xcb, 0xbb, 0x9d, 0xa5, 0x97, 0xb1, 0x01, 0xc6,
    0x96, 0x30, 0xdf, 0x1d, 0x07, 0xaf, 0x17, 0x0f, 0x88, 0xd3, 0x2a, 0xd2,
    0xbe, 0xb8, 0xb4, 0x08, 0x86, 0x5f, 0x67, 0x44, 0x81, 0x99, 0x88, 0x53,
    0xce, 0x8b, 0x5a, 0xba, 0xab, 0x50, 0xad, 0xb6, 0x1d, 0x65, 0x63, 0x31,
    0xe8, 0xbe, 0x3c, 0x48, 0xa4, 0xc9, 0xf2, 0x19, 0x39, 0x48, 0x85, 0x64,
    0xe6, 0x90, 0xfc, 0xa6, 0x3a, 0x05, 0x48, 0x18, 0xc8, 0x2d, 0x8d, 0x30,
    0x37, 0x06, 0xde, 0xe4, 0x50, 0xc1, 0x3d, 0x16, 0x56, 0x50, 0x4a, 0xb9,
    0x1a, 0x4c, 0x10, 0x51, 0x55, 0xbe, 0x0d, 0x13, 0x1a, 0xbc, 0x1b, 0x0a,
    0x43, 0x2c, 0xd1, 0xbb, 0x5d, 0xd6, 0xc4, 0x25, 0x70, 0x24, 0x48, 0xeb,
    0xcb, 0xbc, 0x18, 0x10, 0xd5, 0x04, 0x11, 0x0b, 0x41, 0x45, 0xc4, 0xbf,
    0x44, 0x4e, 0xc3, 0x2e, 0xd9, 0x26, 0x13, 0x64, 0xfd, 0xd5, 0xcd, 0xbb,
    0x5a, 0xcd, 0x47, 0x34, 0x7f, 0x01, 0x08, 0xc5, 0x32, 0x32, 0xcc, 0x1c,
    0x1c, 0x12, 0x17, 0xbd, 0xd2, 0xfc, 0xdd, 0x01, 0x7b, 0x38, 0xc3, 0xe5,
    0xee, 0x4e, 0x20, 0x5c, 0x20, 0xab, 0xc5, 0xf5, 0xd0, 0x19, 0xf9, 0xf3,
    0x3d, 0x3e, 0x12, 0x08, 0xbc, 0xd5, 0x25, 0xfb, 0x28, 0x42, 0xf1, 0x1d,
    0x42, 0x35, 0xfe, 0x45, 0xf7, 0x5b, 0x0b, 0x0a, 0x98, 0x0e, 0xb7, 0xbd,
    0xbb, 0x6b, 0x3d, 0x86, 0x64, 0x01, 0x05, 0x2d, 0x93, 0x5b, 0x6d, 0x59,
    0xfd, 0x6e, 0x58, 0xb1, 0xf8, 0xf8, 0x07, 0x0a, 0x8c, 0x5f, 0xa1, 0xc2,
    0x94, 0x69, 0x4e, 0x4b, 0x66, 0xd6, 0xde, 0x2e, 0xfc, 0x8f, 0x0d, 0xe5,
    0xea, 0x9b, 0x81, 0xfc, 0x98, 0xe2, 0x75, 0xc3, 0xa3, 0xbb, 0x68, 0x8b,
    0x1f, 0x28, 0x69, 0x56, 0x8d, 0x87, 0x03, 0xe1, 0x18, 0x53, 0x0e, 0xd8,
    0x35, 0x15, 0xa5, 0x24, 0x1d, 0xec, 0x82, 0xfb, 0xb4, 0xe1, 0xcc, 0x46,
    0x33, 0xae, 0xe2, 0x0a, 0x5e, 0xbd, 0x0e, 0x35, 0x12, 0x8a, 0xe5, 0xb4,
    0xc5, 0xa5, 0x36, 0x89, 0x86, 0x97, 0xe3, 0xf3, 0x1b, 0x1d, 0x50, 0xa2,
    0x5b, 0xf3, 0x11, 0x67, 0x21, 0x16, 0xbd, 0xee, 0x8d, 0xf4, 0x8b, 0x51,
    0x65, 0x30, 0x9b, 0xa9, 0x68, 0x0c, 0xb8, 0xc0, 0x5d, 0x78, 0x97, 0xa9,
    0x4a, 0xad, 0xb1, 0x0a, 0x3a, 0x6e, 0xd2, 0xa0, 0xab, 0x14, 0xbd, 0xfe,
    0xcd, 0x5e, 0x24, 0x1e, 0x5a, 0x20, 0x60, 0xec, 0xc0, 0x2e, 0x08, 0x49,
    0x09, 0xd4, 0x4a, 0xa4, 0x8d, 0x0c, 0x8b, 0xd3, 0x89, 0x22, 0x93, 0x2b,
    0x8f, 0xc0, 0x4b, 0x90, 0xd6, 0x35, 0xc9, 0x49, 0x1e, 0x3c, 0xdc, 0x96,
    0xc9, 0xbd, 0xfa, 0xbd, 0x51, 0x78, 0x8c, 0x83, 0xb4, 0x00, 0x1a, 0xb5,
    0xa7, 0x2f, 0xb4, 0x15, 0xe8, 0xdc, 0x81, 0xb6, 0xe9, 0x25, 0x83, 0x60,
    0x81, 0x11, 0xc3, 0xaa, 0xa2, 0x42, 0x07, 0x43, 0x90, 0xf6, 0xf5, 0x0b,
    0x59, 0xb9, 0x52, 0xbd, 0x1e, 0xf4, 0xe6, 0xe6, 0xaf, 0x42, 0xc5, 0x21,
    0xc7, 0x21, 0xfc, 0x4e, 0xf0, 0xd6, 0x0a, 0x5c, 0x26, 0xfe, 0xcb, 0x2c,
    0x25, 0x3a, 0x72, 0x0c, 0xfb, 0x03, 0x1d, 0xf6, 0x63, 0x3f, 0x2d, 0xc5,
    0x4a, 0x73, 0x6a, 0xd2, 0x26, 0xe7, 0x70, 0x15, 0x26, 0x0b, 0x6e, 0xe6,
    0x62, 0xd5, 0x3f, 0x00, 0x44, 0x39, 0xfd, 0xfd, 0x19, 0xe8, 0x48, 0xf0,
    0x34, 0x42, 0x0d, 0x18, 0x4e, 0xd6, 0x51, 0x21, 0x7b, 0x7d, 0x3c, 0x46,
    0x7f, 0x47, 0xe1, 0xe2, 0x12, 0x4d, 0x6c, 0x38, 0x0c, 0xf1, 0x51, 0xf9,
    0x40, 0xdb, 0x09, 0xd6, 0x0d, 0x36, 0xe7, 0x1e, 0x32, 0x2e, 0x31, 0x69,
    0x01, 0x16, 0x18, 0x06, 0xe5, 0xf9, 0x4c, 0x12, 0x4f, 0xdc, 0xfc, 0x12,
    0x42, 0x3c, 0x1f, 0xce, 0xe3, 0xfc, 0x06, 0xb9, 0x0c, 0x1f, 0xf8, 0x31,
    0xde, 0xcf, 0xd6, 0x52, 0x18, 0x3f, 0x01, 0x8e, 0xb7, 0x4b, 0xc6, 0x99,
    0x9b, 0xd2, 0x6e, 0x42, 0xc4, 0x1b, 0xbc, 0x3c, 0x92, 0xb4, 0xcd, 0xc8,
    0x5d, 0x5e, 0x95, 0x11, 0x57, 0x0b, 0x50, 0x16, 0x55, 0xb3, 0x00, 0x44,
    0xe8, 0xe3, 0xf9, 0xe0, 0xc9, 0xec, 0xe2, 0x16, 0x6e, 0x86, 0x06, 0x39,
    0xa9, 0x81, 0x71, 0xe6, 0xb6, 0xb0, 0x1c, 0xdb, 0x06, 0x68, 0x5e, 0xa6,
    0xb4, 0x5b, 0x5b, 0x05, 0x92, 0x4e, 0xcd, 0x5e, 0x4f, 0xe2, 0x89, 0x05,
    0x0c, 0xa3, 0x24, 0x56, 0xa7, 0x0b, 0x17, 0xd5, 0xdc, 0xe0, 0xe0, 0xc0,
    0x3f, 0x72, 0x0a, 0xa1, 0xa8, 0xb9, 0x0b, 0xdd, 0xb8, 0xb6, 0x0f, 0x8d,
    0xae, 0x68, 0xfd, 0x2d, 0x60, 0xc1, 0xce, 0x56, 0xa1, 0xce, 0xa7, 0xd3,
    0x42, 0xa3, 0x82, 0x26, 0xcc, 0x05, 0xf5, 0xa9, 0xe3, 0x2c, 0x42, 0x08,
    0x71, 0x1c, 0x63, 0xb8, 0x63, 0x2a, 0x30, 0xcc, 0x14, 0x67, 0x0e, 0x41,
    0x3f, 0x53, 0x31, 0x53, 0x57, 0x0f, 0x57, 0xfd, 0x5f, 0x07, 0x45, 0x1e,
    0x72, 0x50, 0x28, 0x07, 0x2f, 0xe9, 0x2d, 0xe1, 0x10, 0x39, 0x0d, 0x0a,
    0x40, 0x69, 0xe3, 0x4d, 0x13, 0x0f, 0x2f, 0x2e, 0x24, 0xd9, 0x37, 0x08,
    0xf9, 0x10, 0xfd, 0xd8, 0xe4, 0x06, 0x38, 0x4e, 0x10, 0xe1, 0xef, 0xe6,
    0x13, 0x1c, 0x1d, 0x4b, 0xf6, 0x58, 0x59, 0x08, 0x40, 0x49, 0x53, 0x20,
    0x4a, 0x5b, 0x1b, 0x3b, 0x1a, 0x7a, 0x5d, 0x1d, 0x33, 0xf9, 0x68, 0x1f,
    0x7f, 0x6e, 0x48, 0x2b, 0x00, 0x5c, 0x53, 0x31, 0xc0, 0x50, 0x33, 0xea,
    0x54, 0x21, 0x78, 0xfe, 0x04, 0x56, 0xf5, 0xe6, 0x4c, 0x38, 0x25, 0x2e,
    0x38, 0x2a, 0x0a, 0xcd, 0x7f, 0x48, 0x77, 0x5a, 0x4a, 0x21, 0xfd, 0x45,
    0x2d, 0x5b, 0xdf, 0xdf, 0x49, 0x38, 0x37, 0x66, 0x6b, 0xe5, 0x66, 0x6d,
    0xc6, 0x6b, 0x14, 0xd0, 0xc2, 0x53, 0x4d, 0x24, 0x32, 0x04, 0x4c, 0x5b,
    0xb3, 0x1b, 0x05, 0xf4, 0x2f, 0xbe, 0x5f, 0x54, 0x22, 0x58, 0xc8, 0x20,
    0x1d, 0xa5, 0xa5, 0x34, 0xe1, 0x3b, 0x2f, 0xbd, 0xfa, 0x95, 0x56, 0x25,
    0xd3, 0xda, 0xab, 0x25, 0x27, 0xba, 0xf8, 0x4b, 0x74, 0x3c, 0xd9, 0x0f,
    0x3a, 0xb3, 0xe5, 0xef, 0x34, 0x61, 0xd9, 0x2b, 0xfa, 0xd5, 0x4c, 0x28,
    0x3a, 0x60, 0xda, 0x17, 0x77, 0x32, 0xf2, 0xbb, 0x43, 0x79, 0x63, 0xf9,
    0x22, 0x25, 0xef, 0x40, 0xd0, 0xcd, 0xe7, 0x07, 0x62, 0xc2, 0xd3, 0x09,
    0x1c, 0x36, 0x32, 0x5f, 0x2b, 0x54, 0x2a, 0x25, 0x1f, 0xf9, 0xfd, 0x41,
    0xdf, 0x24, 0x06, 0x3a, 0x6d, 0x65, 0x70, 0xfb, 0x30, 0x25, 0x00, 0x37,
    0x21, 0xf1, 0x29, 0x30, 0x29, 0x73, 0x1a, 0x30, 0x06, 0xe7, 0x14, 0xe3,
    0xe7, 0xfd, 0xec, 0x3b, 0x6b, 0x5a, 0x34, 0x00, 0x4e, 0x2c, 0x50, 0x49,
    0x1a, 0xe9, 0x3c, 0x7a, 0xde, 0x4a, 0x37, 0x46, 0xff, 0x71, 0x0c, 0x16,
    0x5b, 0x21, 0xea, 0xcf, 0x66, 0xf8, 0x1b, 0xf5, 0x03, 0x45, 0xed, 0x00,
    0x29, 0x35, 0x3d, 0xb7, 0x6b, 0x7f, 0x3c, 0xd9, 0x13, 0xe3, 0x38, 0x58,
    0x37, 0x2c, 0x1e, 0x2f, 0x5e, 0x69, 0xe5, 0xd5, 0xe8, 0x4d, 0xdb, 0x00,
    0x3c, 0x6b, 0x14, 0x69, 0x3d, 0xfc, 0xdd, 0x58, 0x4d, 0x29, 0x25, 0xce,
    0x28, 0x42, 0xe6, 0xf9, 0x50, 0x29, 0x66, 0xdc, 0xd9, 0x09, 0xed, 0x8a,
    0x28, 0x2f, 0xac, 0x36, 0x26, 0x2b, 0x88, 0x95, 0x14, 0x24, 0x90, 0xc1,
    0x98, 0x06, 0x0f, 0x15, 0xfc, 0xf0, 0xcc, 0xc3, 0x61, 0xd7, 0xdc, 0x97,
    0x46, 0xb4, 0xde, 0x09, 0xc7, 0xb9, 0xd2, 0xbb, 0x3e, 0x18, 0xe1, 0xc5,
    0x9d, 0x5d, 0x52, 0x0b, 0xc8, 0x92, 0xdd, 0xbc, 0xb3, 0x0b, 0xf5, 0xfa,
    0xe8, 0xa5, 0xd4, 0xfe, 0xdb, 0x6b, 0xc3, 0x1c, 0x55, 0x03, 0xba, 0x1e,
    0x9e, 0xed, 0x1d, 0x8d, 0xd0, 0x99, 0x8e, 0x46, 0x86, 0xf3, 0xf8, 0x8c,
    0x8e, 0xb7, 0x5e, 0x81, 0xe4, 0xd2, 0x28, 0x07, 0x31, 0x27, 0x59, 0x3b,
    0x65, 0xbb, 0xeb, 0x36, 0x57, 0x4e, 0x46, 0xad, 0xae, 0x2e, 0xfd, 0x0a,
    0x4e, 0x02, 0xa3, 0x1c, 0x49, 0x42, 0xb4, 0x37, 0x41, 0xfd, 0x30, 0x2b,
    0xc0, 0x97, 0x99, 0xa5, 0xdb, 0x48, 0x73, 0xbb, 0xea, 0xd2, 0xde, 0x2f,
    0x8e, 0xf6, 0x57, 0xc5, 0xaa, 0x23, 0x4e, 0xf4, 0xf1, 0xf6, 0x28, 0x8b,
    0x4a, 0xdb, 0xc1, 0xbd, 0xf1, 0x48, 0x9c, 0xdd, 0xcb, 0x1e, 0xf6, 0xc5,
    0x76, 0xc4, 0x00, 0xd8, 0x26, 0x77, 0xff, 0x8a, 0x40, 0xb1, 0xf4, 0x08,
    0x38, 0x92, 0xe3, 0xd4, 0xf5, 0xe9, 0xf0, 0xd0, 0xd2, 0x02, 0x64, 0x8d,
    0x6f, 0x40, 0x2f, 0x0b, 0xe6, 0x8f, 0xb7, 0xc5, 0x50, 0x7a, 0x9a, 0xa9,
    0x59, 0xc2, 0xaa, 0xa4, 0x6b, 0x8a, 0x9a, 0x23, 0xf1, 0x7f, 0x55, 0x3c,
    0x5e, 0x82, 0xa4, 0xc1, 0x48, 0xc7, 0x4a, 0x70, 0xa8, 0xc0, 0xe6, 0x34,
    0xa2, 0xb0, 0x87, 0x8d, 0xee, 0x7b, 0x1a, 0x6b, 0x47, 0x21, 0x27, 0x7e,
    0xbb, 0x9e, 0xc7, 0xee, 0xfc, 0x37, 0x38, 0x0d, 0x0f, 0x50, 0x57, 0xe8,
    0x3b, 0x76, 0x66, 0x42, 0x34, 0x77, 0x78, 0x47, 0x22, 0x69, 0x60, 0x4a,
    0x21, 0x4d, 0x41, 0xe7, 0xfc, 0x24, 0x5a, 0xe7, 0x27, 0x6f, 0x36, 0x7b,
    0x09, 0x6c, 0x3d, 0xf8, 0x55, 0x40, 0xef, 0xc9, 0x3d, 0x26, 0x2d, 0xec,
    0x71, 0x5b, 0x30, 0x0b, 0x17, 0xf3, 0x35, 0x18, 0x72, 0xf0, 0x58, 0xee,
    0x62, 0x32, 0x20, 0xca, 0x4f, 0x3f, 0x74, 0x4a, 0xec, 0x06, 0x55, 0xfb,
    0x2d, 0x7f, 0x63, 0x1a, 0x3f, 0x50, 0x54, 0x55, 0x3e, 0xfb, 0x6d, 0x61,
    0x2e, 0x2e, 0x29, 0xfd, 0x4b, 0x57, 0x6c, 0x0b, 0x1b, 0x75, 0xf8, 0xd4,
    0xee, 0x43, 0x2b, 0xe5, 0xe7, 0xf4, 0x22, 0x09, 0x5b, 0x59, 0x0a, 0x06,
    0x15, 0x17, 0x58, 0xf5, 0x1d, 0x6a, 0x63, 0xf3, 0xf7, 0xf4, 0x1b, 0x51,
    0x00, 0x18, 0x28, 0x1f, 0x65, 0x1e, 0x55, 0x3a, 0x68, 0x25, 0x25, 0x18,
    0xed, 0x03, 0x6f, 0x18, 0xea, 0xe5, 0x2d, 0xb6, 0x72, 0xf7, 0xdf, 0x56,
    0xe7, 0xde, 0x10, 0x23, 0xd5, 0x7f, 0x74, 0x26, 0x35, 0x41, 0x69, 0xd6,
    0x1d, 0xf1, 0x36, 0xc5, 0x59, 0x00, 0x78, 0x16, 0x3b, 0x50, 0x27, 0x22,
    0x4c, 0x5b, 0xee, 0x2b, 0x29, 0x1b, 0x61, 0xc9, 0x0c, 0x4b, 0x40, 0x29,
    0x0e, 0x49, 0x17, 0x15, 0x0d, 0x39, 0x62, 0x4f, 0x76, 0x0c, 0x32, 0xe7,
    0x38, 0x6b, 0x65, 0x0f, 0x1d, 0x31, 0x15, 0x6d, 0x18, 0x05, 0x6d, 0xbf,
    0x18, 0x17, 0x0f, 0xcb, 0x19, 0x1e, 0x36, 0xf9, 0x3a, 0x2c, 0x61, 0x70,
    0xff, 0x59, 0x2e, 0xe9, 0x1c, 0x68, 0xfa, 0x2b, 0x33, 0x64, 0x3a, 0x2c,
    0xd9, 0x07, 0x64, 0x50, 0x37, 0x58, 0x3b, 0x2f, 0x7f, 0x72, 0xed, 0x09,
    0xfc, 0x5e, 0x1a, 0x11, 0xc7, 0x07, 0x2d, 0x63, 0x4a, 0x69, 0x1d, 0xde,
    0x0d, 0x34, 0xee, 0x17, 0x54, 0xef, 0xff, 0x67, 0xed, 0x10, 0x68, 0xda,
    0x08, 0x11, 0x73, 0x0e, 0x06, 0x3a, 0x66, 0x03, 0x18, 0x64, 0x29, 0x6a,
    0xe7, 0x46, 0x6e, 0x18, 0x72, 0x4b, 0x13, 0x48, 0x5c, 0x72, 0x2a, 0xdb,
    0x29, 0x3b, 0x04, 0x3c, 0x32, 0x44, 0x7f, 0x60, 0x73, 0x3f, 0x68, 0x4e,
    0x13, 0x65, 0x34, 0x20, 0x64, 0x30, 0x3c, 0x69, 0xe8, 0x2c, 0x39, 0x53,
    0x7d, 0x03, 0x2d, 0xda, 0x21, 0x04, 0x2d, 0xd2, 0x4f, 0x1a, 0x33, 0x12,
    0xe2, 0x02, 0x27, 0x57, 0x2a, 0x43, 0x50, 0xb8, 0x2e, 0x18, 0x3c, 0xe9,
    0x37, 0x6c, 0xf2, 0x47, 0xcb, 0x4d, 0x46, 0x5e, 0x1e, 0x24, 0x38, 0xf8,
    0x02, 0x23, 0x61, 0xdf, 0x4d, 0xf9, 0x26, 0xfa, 0x47, 0x4d, 0x42, 0x2f,
    0x59, 0x7c, 0x09, 0x10, 0x10, 0x59, 0x55, 0x05, 0x75, 0x45, 0x23, 0x11,
    0xcb, 0x39, 0x45, 0x63, 0x4f, 0x07, 0x74, 0xc5, 0x0d, 0x0c, 0x20, 0xcd,
    0x65, 0x5d, 0x54, 0x3f, 0xe7, 0x5c, 0x4b, 0x00, 0xf8, 0x1c, 0x2c, 0xde,
    0x40, 0xf9, 0x2a, 0xd8, 0x1d, 0x58, 0x71, 0x52, 0xce, 0x2d, 0x6b, 0xf2,
    0x5f, 0x04, 0x4c, 0x39, 0x06, 0x33, 0x1e, 0x47, 0x40, 0x51, 0x4f, 0x24,
    0xe6, 0x57, 0x46, 0x0f, 0x64, 0x7f, 0x34, 0x4c, 0x57, 0xfc, 0x66, 0xee,
    0x56, 0x5c, 0x23, 0x18, 0xe7, 0x63, 0x73, 0x13, 0x73, 0x50, 0x7e, 0x1a,
    0x49, 0x26, 0x47, 0xc9, 0x73, 0x52, 0x04, 0x59, 0xee, 0xf1, 0x74, 0xe7,
    0x7d, 0x7e, 0x47, 0xee, 0x78, 0x5e, 0x7f, 0xfb, 0x6f, 0x69, 0x29, 0x2c,
    0xc0, 0x66, 0xff, 0xfc, 0x4c, 0xf6, 0x06, 0xfe, 0xf1, 0x24, 0x2d, 0x0f,
    0x66, 0x57, 0xfb, 0x67, 0x28, 0xea, 0x0e, 0x56, 0xeb, 0x61, 0x77, 0xb1,
    0x77, 0x22, 0x48, 0xe0, 0xea, 0xdd, 0x24, 0x24, 0xf9, 0xf5, 0x43, 0x32,
    0xed, 0x4b, 0x51, 0xbb, 0x53, 0x2a, 0xf5, 0xc9, 0xd0, 0xec, 0xf1, 0x5d,
    0x13, 0x4a, 0x4d, 0x7e, 0x6b, 0x4f, 0x5b, 0x59, 0x77, 0x5d, 0x5e, 0x1b,
    0x69, 0x03, 0x6f, 0x4b, 0x20, 0x2e, 0x75, 0x58, 0x40, 0x38, 0x65, 0x31,
    0x27, 0x54, 0x20, 0xea, 0x16, 0x5f, 0x3d, 0x7b, 0xbf, 0xe3, 0x69, 0x56,
    0x4f, 0x42, 0xdb, 0xd7, 0x67, 0x78, 0x04, 0x4d, 0x6f, 0x74, 0x7e, 0x4a,
    0x32, 0x37, 0x3d, 0xe3, 0x35, 0x10, 0xc6, 0x39, 0xe4, 0x17, 0xfe, 0x29,
    0xfe, 0xef, 0x2d, 0x0e, 0x68, 0x3f, 0xf4, 0x28, 0x3d, 0xea, 0x30, 0x61,
    0x32, 0xcd, 0xe1, 0xc5, 0x15, 0x1a, 0xb4, 0xfe, 0x76, 0xdd, 0x11, 0x2b,
    0x42, 0xb7, 0xef, 0x6d, 0x30, 0x39, 0x19, 0x02, 0xdb, 0x41, 0xd1, 0xbd,
    0x05, 0x45, 0x03, 0xf1, 0x1e, 0xbb, 0x0d, 0x51, 0x23, 0x4f, 0x06, 0xb8,
    0xf4, 0x00, 0xf7, 0xbb, 0x7d, 0xea, 0xd8, 0x1e, 0x30, 0x41, 0xe0, 0x55,
    0x2f, 0xfa, 0xf4, 0x3f, 0x30, 0xe7, 0xe2, 0x06, 0x5e, 0xb8, 0x3c, 0x36,
    0xf4, 0xc0, 0x1e, 0x7f, 0xe8, 0x3e, 0x13, 0x2e, 0xf0, 0x28, 0xb1, 0xb9,
    0x42, 0xaf, 0xc6, 0xb5, 0x11, 0xf4, 0x21, 0x64, 0x00, 0xe4, 0x48, 0xda,
    0x3a, 0xb8, 0x27, 0xc9, 0xe2, 0x26, 0x0a, 0x15, 0x53, 0x42, 0x61, 0x23,
    0x01, 0x05, 0x54, 0x1e, 0xf0, 0x13, 0xe2, 0x41, 0xd6, 0x46, 0x52, 0xfd,
    0x23, 0x5c, 0x6a, 0xcf, 0x2c, 0xfb, 0xd5, 0x25, 0x3b, 0x51, 0xf8, 0xd7,
    0xdb, 0x3d, 0xdd, 0x4f, 0xf9, 0x3f, 0x3d, 0x34, 0x1a, 0xdb, 0x1d, 0x24,
    0x35, 0x12, 0x16, 0x25, 0x48, 0x22, 0xf1, 0x74, 0x31, 0x59, 0x34, 0x2b,
    0x7d, 0x5f, 0x4b, 0xc9, 0x7b, 0x18, 0x0a, 0x35, 0xce, 0x6f, 0x01, 0xe0,
    0x47, 0x59, 0x7f, 0x5e, 0x6b, 0x66, 0x2e, 0xc3, 0xe6, 0x46, 0x3d, 0x45,
    0xea, 0xf2, 0x10, 0xd7, 0x29, 0x3e, 0x10, 0xbc, 0x3e, 0x6a, 0x15, 0xc6,
    0x70, 0x12, 0x6b, 0xd9, 0xd8, 0x63, 0x63, 0x31, 0x3c, 0x76, 0xd4, 0xb5,
    0x26, 0x09, 0x0f, 0x11, 0xff, 0xcf, 0x68, 0xf5, 0x0b, 0xdc, 0xab, 0x07,
    0xc4, 0xb2, 0x8d, 0x6d, 0xe2, 0xda, 0x48, 0x1b, 0xec, 0xc4, 0x0f, 0xd5,
    0x1b, 0xca, 0x9a, 0x1e, 0xc0, 0xa5, 0x97, 0x30, 0xab, 0x98, 0x26, 0xe0,
    0xc5, 0x1a, 0xc0, 0xb0, 0x28, 0xc3, 0x86, 0xed, 0x12, 0xf7, 0xd1, 0x45,
    0x9e, 0x81, 0x0c, 0x29, 0xb2, 0x29, 0xaf, 0xa6, 0x19, 0xbe, 0xd8, 0xe1,
    0xd0, 0xe8, 0xdb, 0x33, 0xe5, 0xca, 0xfa, 0xd0, 0x9f, 0xc9, 0xc5, 0xf6,
    0x69, 0xb0, 0x88, 0xd5, 0xa2, 0xe4, 0xd4, 0x4d, 0x82, 0x8d, 0xf5, 0xc2,
    0xfd, 0xdc, 0xa9, 0xfb, 0x4b, 0xeb, 0xd9, 0xfa, 0xc4, 0xe8, 0xfe, 0x5c,
    0xc0, 0xa8, 0x40, 0xbf, 0x91, 0xe3, 0x0b, 0xfa, 0x40, 0xa9, 0xba, 0xe6,
    0xf8, 0xd8, 0xa4, 0x2a, 0xc4, 0xb1, 0xda, 0xe7, 0xbc, 0x22, 0xac, 0xb5,
    0x2a, 0x8c, 0xda, 0xdf, 0xce, 0x98, 0x2d, 0x24, 0xbd, 0xbc, 0x0f, 0x58,
    0xf8, 0xae, 0xbc, 0x46, 0x19, 0xbb, 0x46, 0xa9, 0xb9, 0x48, 0x96, 0x81,
    0xf9, 0x17, 0x41, 0xb4, 0x29, 0x97, 0x1c, 0x42, 0x0e, 0x3f, 0x25, 0x9d,
    0x30, 0xdb, 0x1e, 0x91, 0x15, 0xfc, 0xb6, 0x65, 0xb9, 0x51, 0x2b, 0x21,
    0x17, 0xc5, 0xc4, 0x8f, 0xa5, 0xd2, 0x9a, 0x50, 0xcc, 0xa6, 0x03, 0xba,
    0xe1, 0x56, 0x9b, 0xdb, 0xac, 0xab, 0xb6, 0x13, 0x2b, 0x04, 0x23, 0x02,
    0xba, 0x07, 0xe2, 0x2e, 0x64, 0x49, 0x91, 0xfb, 0x23, 0x54, 0x36, 0x5b,
    0x1b, 0x8e, 0x2c, 0x0a, 0xa9, 0xd7, 0x89, 0x30, 0x30, 0x16, 0xcb, 0x22,
    0x1a, 0xd6, 0x1d, 0xc8, 0xfa, 0x38, 0x60, 0xf1, 0x27, 0xc3, 0xe3, 0x94,
    0x08, 0xc2, 0x8a, 0x90, 0x07, 0xc3, 0xfe, 0xc8, 0xa3, 0xb2, 0xe1, 0x67,
    0xd1, 0xea, 0x32, 0xc0, 0x0b, 0x02, 0x23, 0xba, 0x4a, 0xcb, 0x0f, 0x17,
    0x30, 0xb3, 0xc6, 0x7f, 0xc2, 0x98, 0x1d, 0xff, 0xb4, 0x2a, 0x14, 0xfd,
    0x59, 0x21, 0xb8, 0xe8, 0xe3, 0xb7, 0xff, 0x3f, 0xb4, 0xd8, 0x12, 0x0e,
    0xea, 0x08, 0xf4, 0xbb, 0x57, 0xf0, 0xa6, 0x02, 0x0c, 0xe2, 0xc3, 0x11,
    0xf4, 0x1b, 0x2f, 0xe6, 0x08, 0x01, 0x21, 0xf4, 0x36, 0x23, 0xb8, 0x25,
    0x06, 0xcd, 0xab, 0x32, 0x9b, 0xd1, 0x56, 0xf3, 0xc8, 0x24, 0xe9, 0xf1,
    0x7b, 0x10, 0xea, 0xd4, 0xde, 0xe9, 0xda, 0x2e, 0x15, 0x05, 0xd0, 0xfa,
    0xe4, 0xe1, 0xad, 0xe5, 0x05, 0xdc, 0xb3, 0x24, 0xf9, 0xbc, 0xfc, 0x4e,
    0xdd, 0x8c, 0x12, 0x0c, 0xb6, 0x23, 0x1a, 0x0e, 0xe9, 0xf0, 0xbe, 0x22,
    0x1b, 0x0f, 0x38, 0xa8, 0x20, 0xc2, 0x5f, 0x14, 0xf6, 0x24, 0x5e, 0xd2,
    0xa4, 0x96, 0x56, 0xc2, 0xc3, 0x07, 0xa6, 0xd2, 0xdc, 0xee, 0xdc, 0xe8,
    0xef, 0xcd, 0xb6, 0xb2, 0x48, 0xc1, 0xc1, 0x33, 0xf4, 0x3c, 0xdd, 0x44,
    0x09, 0x55, 0x54, 0x58, 0x28, 0x5a, 0xf3, 0x01, 0x1f, 0xa0, 0x35, 0xdc,
    0x37, 0x46, 0xb8, 0xb7, 0xb8, 0x2d, 0xf8, 0xa1, 0x12, 0xc5, 0xea, 0x28,
    0x56, 0x06, 0x04, 0x99, 0x4c, 0xc4, 0xa5, 0xa6, 0x81, 0xc1, 0x26, 0xb4,
    0xc8, 0x5b, 0xd0, 0x08, 0x2f, 0xd1, 0xf3, 0xe4, 0xca, 0x99, 0x38, 0x38,
    0x50, 0x22, 0x14, 0xe1, 0xde, 0x03, 0xf2, 0x29, 0x03, 0x2c, 0x0e, 0xa5,
    0xde, 0xd5, 0x92, 0x1e, 0x98, 0x88, 0x1c, 0xa2, 0x3e, 0xc8, 0x1f, 0xe9,
    0xf2, 0x00, 0x39, 0x0d, 0xc0, 0x81, 0x65, 0xe5, 0x34, 0x58, 0x9c, 0x52,
    0x10, 0x02, 0x83, 0x96, 0x06, 0xa4, 0xa1, 0xbb, 0x3a, 0xf5, 0x95, 0xb1,
    0x48, 0x1b, 0x91, 0x00, 0x85, 0x3f, 0x65, 0x9d, 0xdb, 0xde, 0x0b, 0xcb,
    0xc8, 0x19, 0x1c, 0x85, 0xb6, 0x8c, 0x99, 0xd4, 0x5f, 0x65, 0xfd, 0xfe,
    0xfb, 0xd8, 0x0b, 0x00, 0x5e, 0x29, 0x29, 0xc1, 0x18, 0xb8, 0x59, 0x71,
    0x37, 0x86, 0x2e, 0x01, 0x09, 0x2f, 0x09, 0x22, 0xef, 0x46, 0x8c, 0x9c,
    0xc0, 0xdc, 0xd8, 0x35, 0xbd, 0x36, 0xcf, 0xdc, 0x37, 0xe8, 0x51, 0x09,
    0xd0, 0xe0, 0xe2, 0x08, 0x88, 0x0f, 0xdc, 0x10, 0x4f, 0x43, 0x3b, 0x49,
    0x9e, 0xd7, 0xd0, 0x4e, 0xc7, 0xfb, 0xe6, 0x89, 0x65, 0xd6, 0x38, 0x23,
    0x81, 0xba, 0x41, 0x40, 0x20, 0x02, 0x34, 0xf5, 0xe6, 0x11, 0xed, 0x66,
    0x17, 0x07, 0x38, 0xe4, 0x45, 0x3b, 0xfc, 0x37, 0x1f, 0xfc, 0x3b, 0xd7,
    0x3e, 0xd0, 0x15, 0x6a, 0x31, 0xfc, 0xf2, 0x40, 0x3a, 0x28, 0x23, 0x2f,
    0x4b, 0xef, 0x1b, 0x46, 0xd6, 0x20, 0x17, 0x66, 0x05, 0x13, 0x4a, 0xf9,
    0x0b, 0x38, 0xde, 0x1c, 0x65, 0x03, 0x57, 0x26, 0x1f, 0x11, 0x22, 0x76,
    0xf0, 0x22, 0xe1, 0x2f, 0x49, 0xef, 0x08, 0x47, 0x6b, 0x1c, 0x11, 0xde,
    0xf4, 0xe2, 0x42, 0x7f, 0x3f, 0xf0, 0xfa, 0xde, 0x03, 0xd9, 0xe7, 0x34,
    0x2f, 0x2e, 0x2b, 0x33, 0xec, 0x0b, 0xf6, 0x13, 0x4b, 0xea, 0xf4, 0x15,
    0x2a, 0x18, 0x15, 0x01, 0x29, 0xeb, 0xda, 0x09, 0x34, 0x23, 0x25, 0x38,
    0x32, 0x00, 0x52, 0x0d, 0x2c, 0x0a, 0xff, 0x35, 0x71, 0xc2, 0xe4, 0xfc,
    0xd3, 0x4d, 0xc4, 0x33, 0x0d, 0x68, 0x57, 0xe6, 0x13, 0x0b, 0x28, 0x4d,
    0x7f, 0x10, 0x6a, 0xe1, 0x21, 0x28, 0x62, 0x2d, 0xd0, 0xe6, 0x0c, 0xf7,
    0xec, 0x01, 0xc9, 0xba, 0xec, 0x2f, 0x22, 0x42, 0xb8, 0x12, 0x24, 0x42,
    0x31, 0xef, 0xde, 0xc9, 0xd9, 0xe1, 0x5f, 0x00, 0xd2, 0x53, 0x48, 0x2d,
    0xb4, 0x41, 0xec, 0xe2, 0x13, 0x20, 0x1f, 0x4c, 0xc6, 0xca, 0xf4, 0xed,
    0x72, 0xd1, 0x58, 0x06, 0x44, 0x54, 0xd3, 0xf5, 0x20, 0x2c, 0xec, 0xdb,
    0x5d, 0xff, 0xe3, 0xf8, 0x7a, 0xb9, 0xca, 0xbc, 0xdb, 0x07, 0x29, 0xfc,
    0x13, 0xe8, 0x3b, 0x58, 0xc3, 0x2f, 0xb8, 0xd5, 0x47, 0x25, 0xff, 0xce,
    0x42, 0xff, 0x5c, 0x32, 0x48, 0xc9, 0x22, 0xd5, 0x57, 0x2f, 0x65, 0x5e,
    0x48, 0x09, 0x39, 0x1f, 0x2a, 0xd9, 0x29, 0xe4, 0x3e, 0x5e, 0x08, 0xb7,
    0xd3, 0x42, 0x00, 0x21, 0x45, 0x07, 0x65, 0x64, 0x6a, 0x3a, 0x5f, 0x42,
    0x42, 0x32, 0xda, 0xb7, 0x5b, 0x54, 0x29, 0xfd, 0x30, 0x1c, 0xe4, 0x7f,
    0xf8, 0x43, 0x40, 0x31, 0x54, 0xeb, 0x05, 0xd0, 0x4d, 0x13, 0x4f, 0x15,
    0x3d, 0x4d, 0x5d, 0x03, 0x7a, 0x2c, 0x42, 0xf6, 0xdc, 0x5b, 0x1b, 0xc4,
    0x1f, 0x1e, 0x68, 0xdd, 0xc5, 0x64, 0xf6, 0x4d, 0x05, 0x15, 0x7e, 0xda,
    0xfd, 0xfe, 0xce, 0x3f, 0x20, 0x49, 0x2d, 0x2c, 0x23, 0x0c, 0x20, 0x2c,
    0xef, 0x43, 0x69, 0xfb, 0xe8, 0xe5, 0x65, 0xe0, 0x66, 0x0d, 0x1d, 0xe8,
    0x07, 0x67, 0xe7, 0x38, 0x66, 0xd6, 0x63, 0xc4, 0x3d, 0x3f, 0x18, 0x5c,
    0xea, 0x31, 0x17, 0xec, 0x09, 0x2a, 0xe5, 0xc2, 0xbd, 0x75, 0xfe, 0xc5,
    0x00, 0x4e, 0x2f, 0x03, 0x23, 0xbf, 0x5e, 0x4a, 0x53, 0xeb, 0xf5, 0x2b,
    0x1e, 0xd4, 0xea, 0xb9, 0x5d, 0xeb, 0xc2, 0x05, 0x41, 0x9c, 0x42, 0x55,
    0x05, 0x1c, 0xd7, 0x4d, 0x75, 0xca, 0x47, 0x10, 0xf8, 0xc4, 0x25, 0x08,
    0xf9, 0xd4, 0xc6, 0x0d, 0x0b, 0xd3, 0xb4, 0xdb, 0xc5, 0xe0, 0x45, 0xf1,
    0xc8, 0xf0, 0xe5, 0x15, 0xcf, 0xb1, 0xcc, 0xe8, 0x05, 0x93, 0x29, 0xf9,
    0x9c, 0x27, 0x00, 0xf9, 0x99, 0xb8, 0xa0, 0xc7, 0x2a, 0xd6, 0xfb, 0x55,
    0x98, 0x81, 0xa0, 0xf0, 0xf5, 0xad, 0xc2, 0xff, 0xc6, 0x2a, 0xec, 0x10,
    0x4b, 0x95, 0xcf, 0x4f, 0xca, 0xfb, 0xea, 0x0e, 0x2a, 0xfd, 0x1b, 0xf6,
    0xa2, 0xec, 0x9d, 0x4f, 0xca, 0xb5, 0xb0, 0x51, 0x2e, 0xf7, 0x3a, 0x66,
    0x15, 0x76, 0xf0, 0xed, 0xf2, 0x3c, 0xf0, 0x56, 0x72, 0x56, 0x2d, 0x3d,
    0xc6, 0xd6, 0xe9, 0x29, 0x35, 0x7a, 0xf6, 0xe8, 0xef, 0x31, 0x44, 0x3a,
    0x62, 0x34, 0xe5, 0xee, 0x1e, 0xf6, 0x36, 0xdf, 0xf3, 0x44, 0xf2, 0x1c,
    0x2c, 0x44, 0x29, 0x05, 0x28, 0x19, 0xeb, 0x25, 0x00, 0xd3, 0x4c, 0xfa,
    0x0c, 0x60, 0x62, 0xa1, 0xde, 0xc9, 0x4d, 0x0c, 0xf3, 0xf0, 0xc5, 0x21,
    0x1f, 0x5c, 0x02, 0xec, 0x6c, 0xf4, 0x68, 0x1e, 0xf5, 0xe7, 0x23, 0xf3,
    0x64, 0x6c, 0xdc, 0x16, 0xfd, 0xf5, 0x1a, 0xee, 0x7f, 0xed, 0x53, 0x4a,
    0xeb, 0x22, 0x59, 0xbe, 0x6f, 0x33, 0x56, 0x5f, 0xe8, 0xfa, 0x16, 0x32,
    0x5d, 0xfe, 0xe0, 0xac, 0xf0, 0xf0, 0x17, 0xcb, 0x23, 0x48, 0x73, 0x4c,
    0x96, 0xf2, 0xff, 0xff, 0x04, 0x00, 0x00, 0x00, 0x0c, 0x00, 0x00, 0x00,
    0xff, 0xff, 0xff, 0xff, 0x74, 0x3e, 0x00, 0x00, 0x08, 0x00, 0x00, 0x00,
    0xae, 0xf2, 0xff, 0xff, 0x04, 0x00, 0x00, 0x00, 0x0c, 0x00, 0x00, 0x00,
    0xff, 0xff, 0xff, 0xff, 0x9d, 0x0f, 0x00, 0x00, 0x08, 0x00, 0x00, 0x00,
    0xc6, 0xf2, 0xff, 0xff, 0x04, 0x00, 0x00, 0x00, 0x0c, 0x00, 0x00, 0x00,
    0xff, 0xff, 0xff, 0xff, 0x95, 0x0f, 0x00, 0x00, 0x10, 0x00, 0x00, 0x00,
    0xde, 0xf2, 0xff, 0xff, 0x04, 0x00, 0x00, 0x00, 0x0c, 0x00, 0x00, 0x00,
    0xff, 0xff, 0xff, 0xff, 0xe5, 0x03, 0x00, 0x00, 0x10, 0x00, 0x00, 0x00,
    0xf6, 0xf2, 0xff, 0xff, 0x04, 0x00, 0x00, 0x00, 0x0c, 0x00, 0x00, 0x00,
    0xff, 0xff, 0xff, 0xff, 0xdf, 0x03, 0x00, 0x00, 0x20, 0x00, 0x00, 0x00,
    0x0e, 0xf3, 0xff, 0xff, 0x04, 0x00, 0x00, 0x00, 0x0c, 0x00, 0x00, 0x00,
    0xff, 0xff, 0xff, 0xff, 0xf7, 0x00, 0x00, 0x00, 0x20, 0x00, 0x00, 0x00,
    0x26, 0xf3, 0xff, 0xff, 0x04, 0x00, 0x00, 0x00, 0x0c, 0x00, 0x00, 0x00,
    0xcb, 0x94, 0xa9, 0xbd, 0x83, 0x95, 0xd1, 0xbc, 0xe4, 0x2e, 0xbd, 0x3d,
    0x3e, 0xf3, 0xff, 0xff, 0x04, 0x00, 0x00, 0x00, 0x20, 0x00, 0x00, 0x00,
    0x30, 0x2e, 0xb3, 0xbc, 0x76, 0xb8, 0x02, 0xbb, 0x32, 0xb9, 0x1f, 0xbc,
    0x79, 0xf9, 0xff, 0x3c, 0x6b, 0x6d, 0x23, 0xbb, 0x36, 0x4c, 0x0a, 0x3e,
    0x77, 0xdb, 0x0f, 0xbc, 0xde, 0x83, 0x44, 0x3d, 0x6a, 0xf3, 0xff, 0xff,
    0x04, 0x00, 0x00, 0x00, 0x40, 0x00, 0x00, 0x00, 0xf2, 0x64, 0xca, 0x3d,
    0xd4, 0x3a, 0x2f, 0x3b, 0x81, 0x93, 0x1d, 0xbd, 0xf6, 0xba, 0x8b, 0xbc,
    0x51, 0x30, 0x53, 0xbd, 0x2e, 0x2d, 0x20, 0xbd, 0x13, 0x3e, 0xb6, 0xbc,
    0x84, 0x9f, 0x08, 0x3e, 0x5b, 0x6d, 0x01, 0xbd, 0xc2, 0x78, 0x94, 0xbc,
    0x8d, 0x1b, 0xda, 0xbc, 0x06, 0x9c, 0x99, 0xbc, 0xf0, 0xdb, 0xc4, 0xbc,
    0xa2, 0x29, 0x15, 0xbd, 0xc9, 0xab, 0x87, 0xbc, 0x78, 0x45, 0xb4, 0xbc,
    0xb6, 0xf3, 0xff, 0xff, 0x04, 0x00, 0x00, 0x00, 0x80, 0x00, 0x00, 0x00,
    0x9d, 0x00, 0x34, 0xbc, 0xb8, 0x38, 0x91, 0xbd, 0x95, 0x76, 0xa5, 0x3b,
    0x52, 0x88, 0x4a, 0xbd, 0x7f, 0xe2, 0x45, 0xbc, 0x3f, 0x40, 0xca, 0x3d,
    0x22, 0x4f, 0xce, 0xbb, 0x49, 0xf7, 0xb1, 0xbb, 0xf8, 0x9a, 0x16, 0xbc,
    0xc1, 0xc9, 0x14, 0xbc, 0xd3, 0x0f, 0x8f, 0xbd, 0x61, 0x34, 0x25, 0x3d,
    0x8e, 0xd4, 0x09, 0xbd, 0x1c, 0x40, 0x4e, 0xbc, 0xc8, 0xc2, 0xf6, 0xba,
    0x3e, 0x31, 0x86, 0xbc, 0x07, 0x28, 0x18, 0xbd, 0xb7, 0xd8, 0x41, 0xbd,
    0x7d, 0x28, 0xe8, 0xbc, 0x6a, 0x57, 0x00, 0xbd, 0xaa, 0xaa, 0x8c, 0x3d,
    0x60, 0xdd, 0x81, 0xbd, 0xe6, 0x40, 0xcc, 0x3d, 0x79, 0xc3, 0xa5, 0xbc,
    0x40, 0xfd, 0xcd, 0x3d, 0x13, 0xf7, 0x28, 0x3a, 0xe8, 0x5a, 0x50, 0xbc,
    0xf8, 0x9e, 0xff, 0x3d, 0x0a, 0x8b, 0xcd, 0x3c, 0xaf, 0x56, 0xff, 0xbc,
    0xc8, 0x93, 0x14, 0xbc, 0x5b, 0x29, 0x9c, 0xbd, 0x42, 0xf4, 0xff, 0xff,
    0x04, 0x00, 0x00, 0x00, 0x40, 0x00, 0x00, 0x00, 0x51, 0x13, 0x89, 0xbd,
    0x2d, 0x24, 0x4b, 0xbc, 0xd2, 0x2b, 0xa6, 0xbc, 0x53, 0x46, 0xda, 0x3d,
    0x00, 0x00, 0x00, 0x00, 0x00, 0x00, 0x00, 0x00, 0x6e, 0x41, 0xa0, 0x3c,
    0x61, 0xda, 0x44, 0xbd, 0x87, 0xb4, 0x9d, 0x3c, 0x0b, 0xc1, 0x1f, 0xbd,
    0xdc, 0xd4, 0x8f, 0xbc, 0x86, 0x67, 0xd4, 0x3d, 0xe3, 0x02, 0x94, 0xbd,
    0x04, 0x18, 0xb7, 0x3d, 0xba, 0x5d, 0x2b, 0xbc, 0x5e, 0x7d, 0x76, 0xbd,
    0x8e, 0xf4, 0xff, 0xff, 0x04, 0x00, 0x00, 0x00, 0xa0, 0x01, 0x00, 0x00,
    0xad, 0xa9, 0xe2, 0xbd, 0x30, 0x64, 0x11, 0x3e, 0x3f, 0xdb, 0x65, 0xbc,
    0xa6, 0x1c, 0x87, 0x3e, 0x5a, 0xc5, 0x77, 0xbb, 0x54, 0x38, 0x3d, 0x3e,
    0x6a, 0xc5, 0xc3, 0x3d, 0x8c, 0x6c, 0xbe, 0xb9, 0x37, 0xe1, 0x90, 0xbe,
    0xcd, 0x69, 0x76, 0xbe, 0x3a, 0x21, 0x20, 0x3d, 0x66, 0x35, 0x99, 0xbe,
    0x9f, 0x5e, 0x19, 0xbe, 0xf9, 0xbd, 0x76, 0x3e, 0x2c, 0xd0, 0xee, 0xbd,
    0x8e, 0x38, 0x46, 0x3e, 0x42, 0xea, 0xd3, 0x3d, 0x6c, 0xed, 0x9e, 0xbe,
    0x14, 0xd2, 0xf1, 0x3b, 0xb9, 0xe2, 0x30, 0xbd, 0x5e, 0x7f, 0x8d, 0xbe,
    0x68, 0x47, 0xa6, 0xbe, 0xff, 0xdd, 0x9f, 0xbe, 0xe3, 0xab, 0x22, 0xbe,
    0x49, 0xe3, 0x11, 0x3d, 0x96, 0x07, 0xb8, 0xbd, 0x4e, 0xca, 0x89, 0xbb,
    0xd1, 0xb0, 0x70, 0xbd, 0x22, 0xdd, 0xed, 0xbd, 0x2f, 0xc2, 0x3d, 0x3c,
    0x7d, 0x50, 0xa2, 0x3e, 0x66, 0x43, 0x7a, 0xbc, 0x90, 0x0d, 0x8f, 0x3e,
    0x9d, 0x0a, 0x82, 0x3e, 0x7d, 0x69, 0x72, 0x3e, 0xde, 0xb6, 0x9e, 0x3d,
    0x31, 0x32, 0x77, 0x3e, 0xcd, 0xd7, 0x69, 0x3e, 0x60, 0x45, 0x26, 0x3e,
    0x66, 0x0a, 0x02, 0xbd, 0xf9, 0x21, 0xa7, 0x3e, 0xe4, 0xaf, 0x06, 0x3e,
    0x8f, 0xa7, 0x9e, 0x3e, 0xbd, 0x2a, 0xab, 0x3d, 0x6b, 0x6f, 0x44, 0xbd,
    0x92, 0x15, 0x95, 0x3c, 0x59, 0xe1, 0x4d, 0x3e, 0x3a, 0xf9, 0x1d, 0x3e,
    0x65, 0x30, 0x16, 0x3e, 0xad, 0x1f, 0x9e, 0xbd, 0xfa, 0xe1, 0x6d, 0xbb,
    0xaa, 0xe0, 0xa3, 0x3d, 0xa4, 0x26, 0xd1, 0xbd, 0x4a, 0x76, 0xa1, 0xbd,
    0xc1, 0xfb, 0xab, 0xbe, 0xa7, 0xdf, 0xf6, 0xbd, 0x26, 0xfc, 0x06, 0xbc,
    0xea, 0x6f, 0x82, 0xbe, 0x5c, 0xa5, 0xda, 0xbd, 0xec, 0x24, 0x30, 0xbe,
    0xc2, 0x6d, 0xa2, 0xbe, 0x72, 0xef, 0x98, 0xbe, 0xd2, 0x49, 0x99, 0x3a,
    0x03, 0x31, 0x8e, 0xbb, 0x46, 0x33, 0xb0, 0xbe, 0x16, 0x94, 0x9b, 0xbe,
    0x9f, 0x63, 0xbf, 0x3d, 0xc4, 0x94, 0xbf, 0xbd, 0x60, 0x52, 0x7a, 0xbc,
    0xe4, 0xbd, 0x6e, 0xbd, 0x2a, 0x26, 0x10, 0x3e, 0xc2, 0x2f, 0xc0, 0x3d,
    0x6c, 0x20, 0x4c, 0xbd, 0x19, 0x5f, 0x7c, 0x3e, 0xa3, 0x0f, 0x6e, 0xbd,
    0x1b, 0x0c, 0x9e, 0x3e, 0x16, 0x1f, 0x80, 0x3d, 0x33, 0x27, 0xd5, 0xbc,
    0x78, 0xce, 0x1c, 0xbe, 0xec, 0x77, 0xe4, 0xbc, 0xd9, 0x54, 0x02, 0x3e,
    0x60, 0x13, 0x75, 0x3e, 0x94, 0xab, 0x58, 0x3d, 0x80, 0x92, 0x26, 0x3d,
    0xd3, 0x16, 0x59, 0x3d, 0x46, 0x85, 0x9c, 0x3e, 0x92, 0x8a, 0x3a, 0x3d,
    0x9b, 0xe7, 0x1b, 0x3e, 0x7b, 0x2d, 0x8f, 0x3e, 0x30, 0xf3, 0x87, 0x3d,
    0x3a, 0xd1, 0x04, 0x3e, 0x33, 0xa8, 0x34, 0x3e, 0x8a, 0xe3, 0xec, 0xbd,
    0x76, 0xa2, 0x16, 0xbe, 0x37, 0x87, 0xb7, 0xbe, 0x27, 0x1e, 0xb0, 0xbe,
    0x5b, 0xf6, 0x9e, 0x3c, 0x38, 0xce, 0x97, 0x3b, 0x5c, 0x8b, 0x3d, 0x3b,
    0x55, 0xd7, 0xa6, 0xbe, 0x59, 0xfe, 0x72, 0xbe, 0xfb, 0x3a, 0x30, 0xbe,
    0x9e, 0x7f, 0x5a, 0xbe, 0x0c, 0x12, 0x49, 0xbe, 0x3a, 0xf6, 0xff, 0xff,
    0x04, 0x00, 0x00, 0x00, 0xc0, 0x00, 0x00, 0x00, 0x26, 0xd4, 0x0d, 0x3e,
    0xdc, 0xfc, 0x3a, 0xbe, 0x7b, 0x09, 0x5b, 0x3e, 0x7d, 0x5e, 0x27, 0xbf,
    0x81, 0x6d, 0xef, 0xbe, 0x50, 0x9d, 0x48, 0x3d, 0x1b, 0x9f, 0xfb, 0xbe,
    0x87, 0xee, 0x16, 0xbd, 0xa0, 0xf1, 0xdf, 0xbd, 0x0a, 0xc3, 0xc6, 0xbe,
    0x07, 0x49, 0xc4, 0xbd, 0x84, 0x7a, 0x7f, 0xbe, 0x18, 0x53, 0xea, 0x3e,
    0xc8, 0xb7, 0x8c, 0x3e, 0xd7, 0x92, 0xec, 0x3e, 0x58, 0xd5, 0xb4, 0x3c,
    0x86, 0xc6, 0x28, 0x3d, 0x20, 0x9e, 0xd8, 0xbe, 0xf1, 0x3a, 0x9c, 0xbe,
    0x0d, 0xe2, 0x9e, 0xbc, 0xc0, 0x05, 0x46, 0xbc, 0xea, 0x98, 0x8a, 0xbe,
    0x0b, 0xf9, 0x2d, 0x3e, 0xb8, 0xe6, 0x9f, 0xbe, 0x48, 0x61, 0xe9, 0x3e,
    0xbc, 0xaa, 0x6c, 0xbe, 0x71, 0x86, 0x87, 0x3e, 0x51, 0x7a, 0xc9, 0xbe,
    0xd1, 0xbc, 0xd4, 0x3e, 0xb3, 0x49, 0x1c, 0xbf, 0x24, 0x6f, 0xd7, 0x3e,
    0x1c, 0x2b, 0xe2, 0xbe, 0x34, 0xa9, 0xe6, 0xbe, 0x1e, 0xec, 0xf9, 0xbe,
    0x8d, 0xaf, 0x0e, 0x3e, 0x1d, 0x49, 0x45, 0x3e, 0x4e, 0xa3, 0xd3, 0xbe,
    0x63, 0x60, 0xd1, 0xbe, 0x44, 0x01, 0x26, 0xbf, 0x10, 0x95, 0xb7, 0xbe,
    0x1d, 0x89, 0x17, 0xbf, 0x60, 0xb7, 0x16, 0xbf, 0x69, 0xf8, 0x2a, 0xbe,
    0x22, 0xdd, 0x15, 0x3f, 0x91, 0x76, 0x8c, 0xbe, 0x06, 0xab, 0x04, 0x3f,
    0x46, 0x90, 0x89, 0xbe, 0x0b, 0x97, 0x83, 0xbe, 0x06, 0xf7, 0xff, 0xff,
    0x04, 0x00, 0x00, 0x00, 0x00, 0x08, 0x00, 0x00, 0x97, 0x71, 0x1e, 0xbe,
    0xcc, 0x1f, 0x79, 0xbe, 0xba, 0x89, 0x6c, 0xbd, 0xfd, 0x90, 0x40, 0xbc,
    0x3f, 0x66, 0x35, 0x3d, 0x6b, 0x5b, 0x68, 0x3e, 0xfc, 0x3c, 0xb1, 0xbd,
    0xa5, 0xe8, 0x57, 0x3e, 0x74, 0xcf, 0x7a, 0x3e, 0x73, 0x39, 0xb8, 0x3c,
    0x6e, 0x31, 0x21, 0xbd, 0xd7, 0xc6, 0xcb, 0x3c, 0x71, 0x33, 0x6a, 0x3e,
    0x4c, 0x32, 0xaa, 0xbe, 0x9d, 0x0d, 0x45, 0x3e, 0xb0, 0x27, 0x8b, 0x3e,
    0x12, 0x1b, 0xdc, 0x3e, 0x35, 0xf4, 0x5d, 0x3e, 0x0c, 0xe3, 0xcc, 0xbb,
    0xe2, 0x76, 0xe0, 0x3e, 0x3e, 0xcd, 0x58, 0x3e, 0x31, 0x50, 0xc0, 0x3e,
    0xb8, 0xd7, 0x84, 0x3d, 0x95, 0x2e, 0xb7, 0xbd, 0x56, 0xff, 0xc7, 0xbe,
    0xaa, 0x27, 0x6c, 0xbd, 0x67, 0xdd, 0x1a, 0x3e, 0x04, 0x40, 0xa9, 0xbd,
    0x6b, 0x9c, 0xcf, 0x3d, 0xca, 0x3c, 0x8c, 0x3e, 0x90, 0x19, 0xdb, 0x3d,
    0x58, 0x98, 0x73, 0x3e, 0x20, 0x7e, 0x48, 0xbe, 0xaa, 0xad, 0xa1, 0xbe,
    0x89, 0xa4, 0x03, 0x3e, 0x45, 0x9f, 0x90, 0xbe, 0xdf, 0x76, 0x82, 0xbe,
    0x73, 0x5d, 0xa2, 0x3e, 0x90, 0xc9, 0x4a, 0x3d, 0xcf, 0x4c, 0x89, 0x3e,
    0xf5, 0x81, 0x86, 0xbe, 0xe3, 0x9e, 0x46, 0x3c, 0x13, 0x5d, 0x6d, 0xbe,
    0x73, 0xc8, 0x0b, 0x3d, 0x54, 0x89, 0x5b, 0xbd, 0x2e, 0x70, 0x2d, 0x3e,
    0xa0, 0x08, 0x23, 0x3d, 0xe0, 0x17, 0x6c, 0x3d, 0xad, 0xbd, 0x04, 0x3e,
    0xf2, 0x88, 0xb4, 0xbe, 0x8d, 0xaa, 0x95, 0x3e, 0x43, 0xbc, 0x57, 0xbd,
    0x12, 0xb5, 0x94, 0xbe, 0x65, 0xb1, 0x84, 0xbe, 0x96, 0x48, 0x84, 0xbb,
    0x8a, 0xe8, 0x8d, 0xbe, 0x3b, 0x26, 0xa7, 0xbe, 0x80, 0xc3, 0x43, 0x3e,
    0x29, 0x90, 0x51, 0x3d, 0x81, 0x68, 0xdd, 0x3d, 0x71, 0xdf, 0xfe, 0x3d,
    0x28, 0xc8, 0x6c, 0xbe, 0x7e, 0x3d, 0x16, 0xbd, 0xdb, 0x34, 0x75, 0xbd,
    0x0e, 0x33, 0x89, 0xbe, 0x09, 0x1d, 0x96, 0xbe, 0x64, 0x78, 0x15, 0x3e,
    0x42, 0xcf, 0x74, 0x3e, 0xb3, 0x97, 0x3d, 0xbe, 0x0e, 0x0d, 0x5e, 0x3e,
    0xb4, 0x99, 0x00, 0x3e, 0xf4, 0xf6, 0xb5, 0x3d, 0x04, 0x80, 0x0e, 0xbe,
    0xca, 0xd6, 0x14, 0xbd, 0xa3, 0x36, 0xe0, 0x3d, 0xde, 0x24, 0xa1, 0x3e,
    0x5e, 0x0b, 0x63, 0xbe, 0xa0, 0xa5, 0x55, 0x3d, 0x25, 0xa1, 0x3d, 0xbe,
    0x7c, 0x4d, 0x21, 0x3e, 0xb7, 0xe2, 0x8d, 0x3e, 0x02, 0x68, 0x2e, 0xbe,
    0xcd, 0x66, 0xf6, 0xbd, 0xe4, 0x91, 0x92, 0x3d, 0x59, 0x1c, 0x71, 0x3e,
    0x0a, 0x6e, 0x91, 0x3e, 0x05, 0xe8, 0x83, 0x3e, 0xf9, 0x3b, 0xab, 0xbe,
    0x69, 0x50, 0x22, 0x3e, 0xd0, 0x3e, 0x2d, 0x3e, 0xda, 0x4d, 0x93, 0xbe,
    0x9e, 0x7d, 0xf6, 0xbd, 0xa3, 0x47, 0x67, 0xbe, 0x27, 0x1e, 0x61, 0xbe,
    0xc8, 0x10, 0xb3, 0xbc, 0x2c, 0x51, 0xb5, 0xbc, 0xc3, 0x27, 0x2c, 0x3c,
    0x74, 0x61, 0x49, 0xbe, 0x43, 0x7a, 0x72, 0xbe, 0x01, 0x45, 0x93, 0x3d,
    0x9e, 0xed, 0x0f, 0xbe, 0x4f, 0xe3, 0x9a, 0x3e, 0xda, 0x19, 0x58, 0x3e,
    0x7f, 0x1e, 0x62, 0xbd, 0x6a, 0x63, 0xa3, 0x3e, 0xaf, 0xf7, 0x62, 0xbe,
    0x24, 0xfa, 0x9b, 0x3d, 0x02, 0x34, 0x17, 0x3e, 0x15, 0xce, 0x37, 0xbe,
    0xe7, 0x21, 0xa4, 0x3e, 0x22, 0x03, 0x8a, 0xbe, 0x0a, 0xf4, 0xb8, 0x3b,
    0x32, 0xbe, 0x49, 0x3e, 0x5f, 0xa6, 0xa8, 0xbe, 0xbb, 0xbd, 0x53, 0xbe,
    0xb5, 0x1b, 0x26, 0x3c, 0x6b, 0xeb, 0x90, 0x3e, 0x48, 0xce, 0x4a, 0xbe,
    0x29, 0x5d, 0x00, 0x3f, 0xef, 0xcb, 0x61, 0x3e, 0x0e, 0x44, 0xd3, 0x3e,
    0x28, 0x8c, 0x08, 0x3d, 0xa6, 0x35, 0xab, 0xbe, 0x1d, 0x43, 0x6b, 0x3e,
    0x06, 0x23, 0x93, 0xbe, 0xd1, 0xb1, 0x2a, 0x3e, 0xe8, 0x4f, 0x91, 0x3d,
    0xf8, 0x05, 0x98, 0xbe, 0x89, 0x77, 0x22, 0xbe, 0xb9, 0xdd, 0xab, 0x3e,
    0x6d, 0x4d, 0x9e, 0xbe, 0xa4, 0xe9, 0xf3, 0x3d, 0xe8, 0x1a, 0xc2, 0x3d,
    0x00, 0x36, 0x46, 0x3b, 0x18, 0x20, 0xc5, 0x3d, 0xc2, 0x36, 0x35, 0xbe,
    0xd6, 0x42, 0x1d, 0xbe, 0xa8, 0x5c, 0x72, 0x3d, 0x9c, 0xe0, 0x54, 0xbe,
    0x20, 0x92, 0x9e, 0xbe, 0xba, 0x95, 0x52, 0x3e, 0xb0, 0xdd, 0x2e, 0x3d,
    0xb2, 0x45, 0x29, 0x3e, 0x56, 0xd0, 0x35, 0x3e, 0xbe, 0x17, 0xff, 0xbd,
    0x91, 0xd8, 0x04, 0xbe, 0x08, 0xe2, 0x5f, 0xbe, 0x60, 0xb7, 0xa1, 0x3d,
    0xf6, 0xb2, 0x87, 0xbe, 0x38, 0x98, 0xbe, 0x3d, 0x92, 0xc4, 0x33, 0x3e,
    0x4f, 0x0d, 0xa7, 0xbe, 0xa6, 0xdc, 0xe6, 0xbd, 0x70, 0x54, 0xd6, 0x3d,
    0xc7, 0xd3, 0x94, 0x3e, 0xe3, 0x71, 0x20, 0xbe, 0xee, 0x5e, 0x8f, 0xbe,
    0x5f, 0x8a, 0x89, 0xbe, 0x98, 0x7b, 0x04, 0x3d, 0x7c, 0xcb, 0x8c, 0x3d,
    0xfb, 0x00, 0x59, 0xbe, 0x31, 0x8d, 0x9c, 0x3e, 0xab, 0x20, 0x16, 0xbe,
    0xac, 0x8f, 0x14, 0x3e, 0x94, 0xdb, 0xac, 0x3d, 0x08, 0x80, 0xb8, 0xbd,
    0xd4, 0x86, 0x9f, 0xbe, 0xdd, 0x07, 0xaf, 0x3e, 0xa1, 0x80, 0xac, 0xbe,
    0xc8, 0xaa, 0xdb, 0x3d, 0xf8, 0xfb, 0x02, 0x3d, 0x11, 0x4c, 0x66, 0xbe,
    0x61, 0xbc, 0x63, 0xbe, 0x42, 0xda, 0x34, 0xbe, 0x3c, 0xe7, 0x72, 0xbe,
    0x2f, 0xfc, 0xac, 0x3e, 0xda, 0xa8, 0x38, 0xbe, 0xfe, 0x96, 0x0a, 0xbe,
    0x48, 0x18, 0x02, 0x3d, 0x70, 0x73, 0x4f, 0x3d, 0xd0, 0xaa, 0xbd, 0xbd,
    0x18, 0x83, 0x9b, 0xbe, 0xc6, 0xb5, 0x13, 0xbe, 0x9b, 0x06, 0x87, 0xbe,
    0xbe, 0xe9, 0x14, 0x3e, 0x10, 0xb6, 0x88, 0xbc, 0x70, 0x15, 0x17, 0xbe,
    0x73, 0x08, 0x1e, 0xbe, 0xb8, 0x3a, 0x92, 0xbe, 0xb3, 0x5a, 0x82, 0x3e,
    0xfa, 0xe0, 0x24, 0x3e, 0xd7, 0x13, 0x2d, 0xbe, 0x06, 0xb7, 0xa5, 0xbe,
    0x34, 0xbd, 0x92, 0xbe, 0xa9, 0xfc, 0x8b, 0xbe, 0x15, 0xc0, 0x22, 0x3e,
    0x97, 0x8d, 0x12, 0xbe, 0xf3, 0x33, 0xf7, 0x3d, 0x75, 0x3a, 0x25, 0x3c,
    0x7e, 0xf5, 0x71, 0x3e, 0x5f, 0x78, 0x49, 0x3e, 0xf3, 0x60, 0xa9, 0x3e,
    0x9b, 0x59, 0x78, 0x3d, 0x8a, 0x48, 0x9a, 0xbe, 0x5d, 0x63, 0x71, 0x3e,
    0x96, 0x93, 0xf7, 0x3d, 0x09, 0xf5, 0x98, 0x3e, 0xc3, 0xa2, 0x3b, 0xbd,
    0xfa, 0x6d, 0x70, 0x3e, 0x73, 0x07, 0x1e, 0xbd, 0xe4, 0x98, 0xdd, 0x3b,
    0x95, 0xfb, 0x81, 0xbe, 0xb5, 0x94, 0x8f, 0x3c, 0xa2, 0xc9, 0x39, 0xbe,
    0x09, 0x2c, 0xa5, 0xbe, 0xcc, 0x6e, 0x95, 0x3c, 0x53, 0x6f, 0x33, 0xbd,
    0xda, 0x8f, 0x79, 0x3d, 0xc8, 0x5d, 0xaa, 0x3c, 0xf3, 0x54, 0xa5, 0x3e,
    0xa9, 0x0d, 0x7b, 0x3e, 0xf2, 0x2d, 0x96, 0x3e, 0x0a, 0xbf, 0x89, 0x3d,
    0xde, 0x0d, 0x06, 0x3d, 0x5f, 0xea, 0x85, 0x3e, 0x8b, 0xc7, 0xb2, 0x3e,
    0x5d, 0xa3, 0xb1, 0xbb, 0xe4, 0x60, 0x8a, 0x3e, 0x26, 0x73, 0x65, 0xbd,
    0x14, 0x76, 0x88, 0xbe, 0x70, 0x08, 0x42, 0x3e, 0x7a, 0x57, 0x55, 0xbd,
    0x6e, 0x2a, 0xe6, 0x3a, 0x5b, 0x5e, 0xb0, 0x3e, 0x50, 0x2a, 0x56, 0x3e,
    0x6f, 0x05, 0xd7, 0x3c, 0x7c, 0x27, 0xf7, 0x3d, 0xfc, 0xe4, 0x97, 0xbe,
    0x59, 0xda, 0xb2, 0xbe, 0xc9, 0x93, 0x39, 0x3e, 0x2f, 0x9a, 0x24, 0xbe,
    0xfc, 0xa7, 0xc6, 0x3e, 0x9c, 0x63, 0xf7, 0x3d, 0xb6, 0x9a, 0xbc, 0x3e,
    0xe5, 0x07, 0x88, 0xbe, 0x82, 0x0e, 0x6d, 0xbe, 0xa3, 0x93, 0xd3, 0xbe,
    0x30, 0xde, 0x07, 0x3e, 0x56, 0x6d, 0x5d, 0xbe, 0x6e, 0xeb, 0x90, 0xbd,
    0x3b, 0x43, 0x1e, 0xbd, 0x35, 0x62, 0xb1, 0x3e, 0x2a, 0x9d, 0xa2, 0x3a,
    0xcb, 0xc8, 0x8e, 0x3e, 0x77, 0xe0, 0x19, 0x3e, 0x78, 0xfb, 0xa5, 0x3e,
    0x3b, 0x04, 0x16, 0xbe, 0x27, 0x40, 0x57, 0xbe, 0x53, 0x44, 0x85, 0xbe,
    0x11, 0xad, 0xa7, 0x3d, 0x49, 0x70, 0x51, 0x3a, 0x26, 0xb7, 0xad, 0x3e,
    0x82, 0x6a, 0x45, 0x3d, 0xae, 0x09, 0xd9, 0x3d, 0xb3, 0xe6, 0x59, 0xbe,
    0x24, 0x0a, 0x44, 0x3d, 0x3f, 0x74, 0x4d, 0xbe, 0xb3, 0x7f, 0xd3, 0x3d,
    0x38, 0x22, 0xde, 0x3d, 0x51, 0xc4, 0xcb, 0xbd, 0xdd, 0x72, 0xd5, 0xbd,
    0x1a, 0xe9, 0x48, 0x3d, 0xdd, 0x2c, 0x6d, 0x3e, 0x72, 0xad, 0x66, 0x3e,
    0x0d, 0xea, 0x63, 0xbe, 0x48, 0xb2, 0x85, 0x3e, 0xf0, 0xe1, 0x00, 0xbd,
    0xb4, 0x06, 0xe6, 0x3d, 0x38, 0x10, 0x4c, 0xbe, 0xab, 0x5e, 0x82, 0xbe,
    0x43, 0xdb, 0x90, 0xbd, 0x9a, 0x1f, 0xaf, 0x3e, 0xda, 0xa5, 0x65, 0xbe,
    0x59, 0x1b, 0x12, 0x3e, 0x87, 0x06, 0xb5, 0xbd, 0xb2, 0xab, 0xf5, 0x3d,
    0xff, 0x49, 0x5a, 0x3e, 0xda, 0x8b, 0x1c, 0xbe, 0x54, 0xb1, 0xad, 0x3e,
    0x47, 0x40, 0xae, 0x3e, 0x1e, 0xd0, 0x19, 0xbe, 0x14, 0x50, 0xa5, 0x3c,
    0xb7, 0x55, 0x82, 0x3e, 0x37, 0x71, 0xaa, 0x3e, 0x82, 0x72, 0xb2, 0xbe,
    0x75, 0xf4, 0x81, 0xbd, 0xd7, 0x4c, 0xaa, 0xbd, 0xf0, 0x44, 0xe7, 0xbd,
    0x5b, 0x56, 0xbb, 0x3e, 0x0f, 0xd3, 0x51, 0x3d, 0x05, 0xd2, 0xa0, 0x3e,
    0xb1, 0x91, 0x3b, 0x3e, 0x6b, 0x08, 0x3d, 0xbd, 0x1e, 0x26, 0x89, 0x3e,
    0xc5, 0x13, 0x58, 0xbe, 0x33, 0x2a, 0xa8, 0x3d, 0xa8, 0xb7, 0x0e, 0x3e,
    0xc6, 0xab, 0x96, 0x3e, 0xf6, 0x9d, 0x77, 0x3c, 0x0c, 0xdc, 0x05, 0xbe,
    0x1d, 0xb6, 0x53, 0xbe, 0x54, 0xd2, 0x49, 0xbc, 0x76, 0x17, 0xa9, 0x3c,
    0xa8, 0xb8, 0xd6, 0x3b, 0x6f, 0x08, 0x14, 0x3e, 0x0d, 0xec, 0x03, 0x3e,
    0x8c, 0x8d, 0x0b, 0xbe, 0xd5, 0x68, 0xa9, 0x3e, 0xd6, 0xd9, 0x86, 0x3c,
    0xc2, 0xdf, 0xb3, 0x3e, 0x6a, 0xd1, 0xb3, 0xbe, 0xc5, 0xd2, 0xab, 0xbe,
    0x5e, 0xd9, 0x92, 0xbe, 0xad, 0xb8, 0x08, 0xbe, 0x7c, 0xeb, 0x3e, 0xbe,
    0xad, 0x7d, 0x7c, 0x3e, 0x6a, 0x76, 0x71, 0x3e, 0xe8, 0x13, 0x45, 0xbd,
    0x91, 0x91, 0xb1, 0xbe, 0x8f, 0x6e, 0xab, 0x3e, 0x94, 0xd8, 0x8c, 0x3e,
    0xf8, 0x59, 0x31, 0xbe, 0x56, 0x54, 0x8e, 0x3c, 0xe8, 0xa0, 0x83, 0x3d,
    0xc9, 0x52, 0xa0, 0x3e, 0x39, 0xcb, 0x5f, 0xbe, 0x9e, 0x81, 0xf0, 0xbc,
    0x3f, 0x52, 0x01, 0xbe, 0xd0, 0xb1, 0x91, 0x3c, 0x1e, 0xc7, 0x40, 0x3c,
    0xfc, 0x1a, 0x19, 0xbe, 0xf6, 0x87, 0x52, 0x3e, 0x86, 0x2f, 0x90, 0x3e,
    0xee, 0x00, 0xea, 0xbd, 0xf1, 0xc3, 0x8e, 0xbe, 0x82, 0xf2, 0x4a, 0xbe,
    0x0b, 0x42, 0xa9, 0xbe, 0x59, 0xb1, 0x09, 0x3e, 0x5f, 0xe4, 0x96, 0xbe,
    0xf5, 0x7f, 0xa8, 0xbe, 0x6c, 0xca, 0x87, 0x3d, 0x8f, 0xbf, 0x65, 0x3d,
    0xd0, 0x85, 0xad, 0xbe, 0x28, 0x19, 0x9d, 0xbe, 0xe9, 0x70, 0xbe, 0x3e,
    0x69, 0x2d, 0xd1, 0xbd, 0x0f, 0x70, 0xaa, 0xbe, 0x9e, 0xe3, 0x7c, 0x3e,
    0x95, 0xd5, 0x5c, 0xbe, 0xbd, 0x62, 0x45, 0xbe, 0xec, 0x14, 0xc4, 0xbe,
    0x32, 0x55, 0xb5, 0xbe, 0x37, 0x97, 0x89, 0xbe, 0x02, 0x42, 0x8f, 0x3e,
    0xa9, 0x44, 0x9c, 0xbe, 0x17, 0xae, 0x5b, 0x3c, 0x7c, 0xc7, 0xb3, 0xbc,
    0xce, 0x5b, 0x27, 0x3e, 0x70, 0xac, 0xd7, 0xbe, 0x44, 0xab, 0xa5, 0xbe,
    0x6e, 0xab, 0xbf, 0xbe, 0xb0, 0x36, 0x0f, 0xbd, 0x8c, 0xa9, 0xba, 0x3d,
    0x9f, 0x55, 0x89, 0xbe, 0xc1, 0x5e, 0xa7, 0x3e, 0x61, 0xe2, 0xb9, 0xbe,
    0x49, 0xa0, 0xd2, 0x3e, 0x1b, 0xbb, 0xa9, 0xbd, 0x30, 0xda, 0x4d, 0xbe,
    0xc8, 0x5c, 0xdd, 0x3e, 0x74, 0x7a, 0xc2, 0x3e, 0x05, 0x9f, 0x08, 0xbe,
    0x72, 0xe2, 0xa7, 0xbe, 0x73, 0x9d, 0xa3, 0xbd, 0x74, 0xc3, 0xde, 0xbd,
    0xc6, 0x7c, 0x9c, 0x3e, 0x54, 0xb2, 0xeb, 0xbd, 0xf2, 0xd2, 0xb4, 0x3e,
    0x49, 0xba, 0xa5, 0xbe, 0x51, 0xfa, 0xe7, 0xbd, 0x00, 0x71, 0x14, 0x3d,
    0x5c, 0xc9, 0xb3, 0xbd, 0x7a, 0xec, 0xba, 0x3e, 0xd9, 0x8d, 0xa9, 0xbe,
    0x58, 0xc4, 0xea, 0x3e, 0x7d, 0x5d, 0xe9, 0x3d, 0x16, 0xe1, 0xe7, 0x3e,
    0x8b, 0xf0, 0x14, 0x3e, 0x80, 0x58, 0x80, 0xbe, 0x38, 0x9e, 0xdb, 0x3e,
    0xca, 0x2b, 0xc1, 0x3e, 0xfa, 0xc8, 0x12, 0x3e, 0xc1, 0xe9, 0xb1, 0x3e,
    0x11, 0x32, 0x04, 0x3e, 0x2e, 0x8b, 0x30, 0x3d, 0xe6, 0x67, 0xc5, 0x3e,
    0x57, 0xec, 0x73, 0xbe, 0x3f, 0xcf, 0x7d, 0xbe, 0xbe, 0x3c, 0x4d, 0xbe,
    0xfb, 0xdb, 0x8f, 0xbe, 0xe3, 0x8e, 0xc2, 0xbd, 0xc1, 0x1b, 0x7a, 0x3e,
    0x93, 0x68, 0xb1, 0x3e, 0x06, 0x21, 0x8d, 0x3e, 0x8e, 0xd8, 0xb5, 0x3e,
    0x4b, 0xa1, 0x9c, 0x3e, 0x88, 0x1a, 0x32, 0xbe, 0x8f, 0xa0, 0x75, 0x3e,
    0x64, 0x7a, 0x85, 0xbe, 0x03, 0x72, 0x5a, 0xbe, 0x24, 0x54, 0x33, 0xbe,
    0x33, 0xfd, 0x0f, 0x3e, 0xc8, 0x07, 0x6c, 0x3d, 0x1a, 0x60, 0x20, 0x3e,
    0x90, 0xc5, 0x03, 0x3e, 0x32, 0xaf, 0x79, 0xbe, 0x4e, 0x38, 0xa3, 0xbe,
    0x43, 0x5a, 0x1c, 0x3d, 0x9c, 0x7a, 0x51, 0xbe, 0x45, 0xc4, 0x5c, 0xbd,
    0x68, 0x1b, 0x9e, 0xbd, 0xe5, 0x09, 0x60, 0xbe, 0x16, 0xaa, 0x0b, 0xbe,
    0xda, 0xd4, 0x3e, 0xbe, 0x16, 0x15, 0x8b, 0xbe, 0xa0, 0xec, 0xbd, 0xbe,
    0x27, 0x24, 0x0c, 0x3e, 0xbf, 0xfa, 0x8f, 0x3d, 0xfe, 0x0e, 0x7b, 0x3e,
    0xc2, 0xc8, 0x44, 0x3e, 0xcb, 0xd4, 0xb0, 0x3d, 0x33, 0xd2, 0x9b, 0xbe,
    0x6b, 0x1f, 0x89, 0x3e, 0x33, 0xd4, 0xd5, 0x3e, 0xb4, 0x9f, 0xbe, 0x3e,
    0xf5, 0x10, 0x1a, 0xbe, 0xa5, 0xe8, 0x4e, 0x3e, 0xe7, 0xc4, 0x37, 0xbe,
    0x52, 0x97, 0x63, 0x3e, 0x14, 0x16, 0x12, 0xbe, 0xd6, 0xe1, 0x07, 0xbe,
    0x9a, 0xc0, 0x1d, 0xbe, 0x4d, 0x8d, 0x84, 0x3e, 0x36, 0x44, 0x2f, 0xbe,
    0xa8, 0xe8, 0xa1, 0xbd, 0xe0, 0x63, 0xf6, 0x3c, 0xef, 0x3d, 0xa1, 0x3e,
    0x66, 0x2c, 0x66, 0x3e, 0x5b, 0x84, 0xae, 0x3e, 0x20, 0x1a, 0xbb, 0xbd,
    0xd5, 0xe0, 0xfb, 0xbd, 0x23, 0x4d, 0xa3, 0x3e, 0x78, 0xe3, 0xdf, 0xbd,
    0x6f, 0x90, 0xa9, 0xbe, 0xd5, 0x14, 0xa8, 0xbe, 0x13, 0x97, 0x6a, 0xbd,
    0xdb, 0x17, 0x0e, 0x3d, 0x5b, 0xd6, 0x38, 0xbe, 0x39, 0xe5, 0xb4, 0x3d,
    0xc0, 0x1b, 0x85, 0xbe, 0x6d, 0x2c, 0x00, 0x3e, 0x16, 0x07, 0x43, 0xbe,
    0x30, 0xdf, 0xf9, 0x3d, 0xce, 0x91, 0x3c, 0xbe, 0x78, 0x1e, 0x75, 0xbe,
    0xb7, 0x49, 0xa2, 0xbe, 0x5e, 0xdd, 0x95, 0x3e, 0xb4, 0xe3, 0xea, 0xbd,
    0x9e, 0x91, 0x65, 0x3e, 0xf6, 0xe4, 0x8d, 0x3e, 0x4c, 0xa5, 0x58, 0x3e,
    0xeb, 0xa8, 0xa5, 0x3e, 0xad, 0x0b, 0x38, 0x3e, 0xb1, 0x54, 0x60, 0xbe,
    0xdc, 0x92, 0x49, 0xbe, 0x20, 0x0a, 0x51, 0xbd, 0x58, 0xf2, 0x80, 0xbe,
    0xef, 0xf6, 0x3e, 0xbe, 0x4c, 0x1c, 0x9a, 0x3e, 0xc2, 0xd3, 0x72, 0x3d,
    0x02, 0x5a, 0x00, 0x3e, 0xe8, 0x78, 0x70, 0x3e, 0xcc, 0xde, 0x05, 0x3e,
    0x16, 0xdc, 0x83, 0xbe, 0x83, 0xc0, 0xb6, 0xbd, 0x9e, 0xb5, 0x45, 0xbe,
    0x95, 0x48, 0x00, 0x3d, 0x92, 0x79, 0x2d, 0x3e, 0x00, 0xe4, 0x88, 0xbe,
    0xc7, 0x43, 0xc7, 0x3e, 0x67, 0x26, 0x90, 0xbd, 0xef, 0xc9, 0x8d, 0xbd,
    0xb4, 0x1a, 0x9f, 0xbd, 0xa7, 0x89, 0xa4, 0xbe, 0x30, 0xf8, 0x75, 0x3d,
    0x67, 0x52, 0x2c, 0xbe, 0x8d, 0x32, 0x81, 0xbd, 0xbb, 0xf0, 0x60, 0x3e,
    0x9a, 0xc3, 0x97, 0x3d, 0x4e, 0x44, 0x38, 0x3e, 0x83, 0xbd, 0x05, 0xbe,
    0x72, 0x3b, 0xb4, 0x3e, 0x12, 0xff, 0xff, 0xff, 0x04, 0x00, 0x00, 0x00,
    0x04, 0x00, 0x00, 0x00, 0x01, 0x00, 0x00, 0x00, 0x22, 0xff, 0xff, 0xff,
    0x04, 0x00, 0x00, 0x00, 0x04, 0x00, 0x00, 0x00, 0xfd, 0xff, 0xff, 0xff,
    0xa4, 0xe6, 0xff, 0xff, 0xa8, 0xe6, 0xff, 0xff, 0x0f, 0x00, 0x00, 0x00,
    0x4d, 0x4c, 0x49, 0x52, 0x20, 0x43, 0x6f, 0x6e, 0x76, 0x65, 0x72, 0x74,
    0x65, 0x64, 0x2e, 0x00, 0x01, 0x00, 0x00, 0x00, 0x14, 0x00, 0x00, 0x00,
    0x00, 0x00, 0x0e, 0x00, 0x18, 0x00, 0x14, 0x00, 0x10, 0x00, 0x0c, 0x00,
    0x08, 0x00, 0x04, 0x00, 0x0e, 0x00, 0x00, 0x00, 0x14, 0x00, 0x00, 0x00,
    0x1c, 0x00, 0x00, 0x00, 0x04, 0x05, 0x00, 0x00, 0x08, 0x05, 0x00, 0x00,
    0x0c, 0x05, 0x00, 0x00, 0x04, 0x00, 0x00, 0x00, 0x6d, 0x61, 0x69, 0x6e,
    0x00, 0x00, 0x00, 0x00, 0x16, 0x00, 0x00, 0x00, 0xbc, 0x04, 0x00, 0x00,
    0x58, 0x04, 0x00, 0x00, 0x20, 0x04, 0x00, 0x00, 0xe4, 0x03, 0x00, 0x00,
    0x90, 0x03, 0x00, 0x00, 0x68, 0x03, 0x00, 0x00, 0x38, 0x03, 0x00, 0x00,
    0xf0, 0x02, 0x00, 0x00, 0xc8, 0x02, 0x00, 0x00, 0x98, 0x02, 0x00, 0x00,
    0x54, 0x02, 0x00, 0x00, 0x2c, 0x02, 0x00, 0x00, 0xfc, 0x01, 0x00, 0x00,
    0xb4, 0x01, 0x00, 0x00, 0x8c, 0x01, 0x00, 0x00, 0x5c, 0x01, 0x00, 0x00,
    0x18, 0x01, 0x00, 0x00, 0xf0, 0x00, 0x00, 0x00, 0xbc, 0x00, 0x00, 0x00,
    0x78, 0x00, 0x00, 0x00, 0x40, 0x00, 0x00, 0x00, 0x04, 0x00, 0x00, 0x00,
    0x0a, 0xfc, 0xff, 0xff, 0x1c, 0x00, 0x00, 0x00, 0x00, 0x00, 0x00, 0x09,
    0x1c, 0x00, 0x00, 0x00, 0x20, 0x00, 0x00, 0x00, 0x06, 0x00, 0x00, 0x00,
    0x00, 0x00, 0x06, 0x00, 0x08, 0x00, 0x04, 0x00, 0x06, 0x00, 0x00, 0x00,
    0x00, 0x00, 0x80, 0x3f, 0x01, 0x00, 0x00, 0x00, 0x28, 0x00, 0x00, 0x00,
    0x01, 0x00, 0x00, 0x00, 0x27, 0x00, 0x00, 0x00, 0x42, 0xfc, 0xff, 0xff,
    0x14, 0x00, 0x00, 0x00, 0x00, 0x00, 0x00, 0x08, 0x10, 0x00, 0x00, 0x00,
    0x14, 0x00, 0x00, 0x00, 0x05, 0x00, 0x00, 0x00, 0xa8, 0xe7, 0xff, 0xff,
    0x01, 0x00, 0x00, 0x00, 0x27, 0x00, 0x00, 0x00, 0x03, 0x00, 0x00, 0x00,
    0x26, 0x00, 0x00, 0x00, 0x04, 0x00, 0x00, 0x00, 0x0a, 0x00, 0x00, 0x00,
    0x76, 0xfc, 0xff, 0xff, 0x1c, 0x00, 0x00, 0x00, 0x00, 0x00, 0x00, 0x08,
    0x1c, 0x00, 0x00, 0x00, 0x20, 0x00, 0x00, 0x00, 0x05, 0x00, 0x00, 0x00,
    0x00, 0x00, 0x06, 0x00, 0x08, 0x00, 0x07, 0x00, 0x06, 0x00, 0x00, 0x00,
    0x00, 0x00, 0x00, 0x01, 0x01, 0x00, 0x00, 0x00, 0x26, 0x00, 0x00, 0x00,
    0x03, 0x00, 0x00, 0x00, 0x25, 0x00, 0x00, 0x00, 0x03, 0x00, 0x00, 0x00,
    0x06, 0x00, 0x00, 0x00, 0xb6, 0xfc, 0xff, 0xff, 0x14, 0x00, 0x00, 0x00,
    0x00, 0x00, 0x00, 0x1b, 0x10, 0x00, 0x00, 0x00, 0x14, 0x00, 0x00, 0x00,
    0x04, 0x00, 0x00, 0x00, 0x1c, 0xe8, 0xff, 0xff, 0x01, 0x00, 0x00, 0x00,
    0x25, 0x00, 0x00, 0x00, 0x02, 0x00, 0x00, 0x00, 0x24, 0x00, 0x00, 0x00,
    0x02, 0x00, 0x00, 0x00, 0x16, 0xfd, 0xff, 0xff, 0x0c, 0x00, 0x00, 0x00,
    0x10, 0x00, 0x00, 0x00, 0x02, 0x00, 0x00, 0x00, 0x01, 0x00, 0x00, 0x00,
    0x24, 0x00, 0x00, 0x00, 0x02, 0x00, 0x00, 0x00, 0x23, 0x00, 0x00, 0x00,
    0x0b, 0x00, 0x00, 0x00, 0x0a, 0xfd, 0xff, 0xff, 0x14, 0x00, 0x00, 0x00,
    0x00, 0x00, 0x00, 0x05, 0x24, 0x00, 0x00, 0x00, 0x28, 0x00, 0x00, 0x00,
    0x03, 0x00, 0x00, 0x00, 0xb6, 0xfd, 0xff, 0xff, 0x01, 0x00, 0x00, 0x00,
    0x04, 0x00, 0x00, 0x00, 0x01, 0x00, 0x00, 0x00, 0x04, 0x00, 0x00, 0x00,
    0x00, 0x00, 0x00, 0x01, 0x01, 0x00, 0x00, 0x00, 0x23, 0x00, 0x00, 0x00,
    0x01, 0x00, 0x00, 0x00, 0x22, 0x00, 0x00, 0x00, 0xea, 0xfc, 0xff, 0xff,
    0x10, 0x00, 0x00, 0x00, 0x00, 0x00, 0x00, 0x34, 0x0c, 0x00, 0x00, 0x00,
    0x10, 0x00, 0x00, 0x00, 0xac, 0xe8, 0xff, 0xff, 0x01, 0x00, 0x00, 0x00,
    0x22, 0x00, 0x00, 0x00, 0x02, 0x00, 0x00, 0x00, 0x21, 0x00, 0x00, 0x00,
    0x02, 0x00, 0x00, 0x00, 0xa6, 0xfd, 0xff, 0xff, 0x0c, 0x00, 0x00, 0x00,
    0x10, 0x00, 0x00, 0x00, 0x02, 0x00, 0x00, 0x00, 0x01, 0x00, 0x00, 0x00,
    0x21, 0x00, 0x00, 0x00, 0x02, 0x00, 0x00, 0x00, 0x20, 0x00, 0x00, 0x00,
    0x0c, 0x00, 0x00, 0x00, 0x9a, 0xfd, 0xff, 0xff, 0x14, 0x00, 0x00, 0x00,
    0x00, 0x00, 0x00, 0x01, 0x20, 0x00, 0x00, 0x00, 0x24, 0x00, 0x00, 0x00,
    0x01, 0x00, 0x00, 0x00, 0x8c, 0xfd, 0xff, 0xff, 0x00, 0x00, 0x00, 0x01,
    0x01, 0x00, 0x00, 0x00, 0x01, 0x00, 0x00, 0x00, 0x00, 0x00, 0x00, 0x01,
    0x01, 0x00, 0x00, 0x00, 0x20, 0x00, 0x00, 0x00, 0x03, 0x00, 0x00, 0x00,
    0x1f, 0x00, 0x00, 0x00, 0x11, 0x00, 0x00, 0x00, 0x07, 0x00, 0x00, 0x00,
    0x7e, 0xfd, 0xff, 0xff, 0x10, 0x00, 0x00, 0x00, 0x00, 0x00, 0x00, 0x34,
    0x0c, 0x00, 0x00, 0x00, 0x10, 0x00, 0x00, 0x00, 0x40, 0xe9, 0xff, 0xff,
    0x01, 0x00, 0x00, 0x00, 0x1f, 0x00, 0x00, 0x00, 0x02, 0x00, 0x00, 0x00,
    0x1e, 0x00, 0x00, 0x00, 0x01, 0x00, 0x00, 0x00, 0x3a, 0xfe, 0xff, 0xff,
    0x0c, 0x00, 0x00, 0x00, 0x10, 0x00, 0x00, 0x00, 0x02, 0x00, 0x00, 0x00,
    0x01, 0x00, 0x00, 0x00, 0x1e, 0x00, 0x00, 0x00, 0x02, 0x00, 0x00, 0x00,
    0x1d, 0x00, 0x00, 0x00, 0x0d, 0x00, 0x00, 0x00, 0x2e, 0xfe, 0xff, 0xff,
    0x14, 0x00, 0x00, 0x00, 0x00, 0x00, 0x00, 0x05, 0x24, 0x00, 0x00, 0x00,
    0x28, 0x00, 0x00, 0x00, 0x03, 0x00, 0x00, 0x00, 0xda, 0xfe, 0xff, 0xff,
    0x01, 0x00, 0x00, 0x00, 0x04, 0x00, 0x00, 0x00, 0x01, 0x00, 0x00, 0x00,
    0x04, 0x00, 0x00, 0x00, 0x00, 0x00, 0x00, 0x01, 0x01, 0x00, 0x00, 0x00,
    0x1d, 0x00, 0x00, 0x00, 0x01, 0x00, 0x00, 0x00, 0x1c, 0x00, 0x00, 0x00,
    0x0e, 0xfe, 0xff, 0xff, 0x10, 0x00, 0x00, 0x00, 0x00, 0x00, 0x00, 0x34,
    0x0c, 0x00, 0x00, 0x00, 0x10, 0x00, 0x00, 0x00, 0xd0, 0xe9, 0xff, 0xff,
    0x01, 0x00, 0x00, 0x00, 0x1c, 0x00, 0x00, 0x00, 0x02, 0x00, 0x00, 0x00,
    0x1b, 0x00, 0x00, 0x00, 0x02, 0x00, 0x00, 0x00, 0xca, 0xfe, 0xff, 0xff,
    0x0c, 0x00, 0x00, 0x00, 0x10, 0x00, 0x00, 0x00, 0x02, 0x00, 0x00, 0x00,
    0x01, 0x00, 0x00, 0x00, 0x1b, 0x00, 0x00, 0x00, 0x02, 0x00, 0x00, 0x00,
    0x1a, 0x00, 0x00, 0x00, 0x0e, 0x00, 0x00, 0x00, 0xbe, 0xfe, 0xff, 0xff,
    0x14, 0x00, 0x00, 0x00, 0x00, 0x00, 0x00, 0x01, 0x20, 0x00, 0x00, 0x00,
    0x24, 0x00, 0x00, 0x00, 0x01, 0x00, 0x00, 0x00, 0xb0, 0xfe, 0xff, 0xff,
    0x00, 0x00, 0x00, 0x01, 0x01, 0x00, 0x00, 0x00, 0x01, 0x00, 0x00, 0x00,
    0x00, 0x00, 0x00, 0x01, 0x01, 0x00, 0x00, 0x00, 0x1a, 0x00, 0x00, 0x00,
    0x03, 0x00, 0x00, 0x00, 0x19, 0x00, 0x00, 0x00, 0x12, 0x00, 0x00, 0x00,
    0x08, 0x00, 0x00, 0x00, 0xa2, 0xfe, 0xff, 0xff, 0x10, 0x00, 0x00, 0x00,
    0x00, 0x00, 0x00, 0x34, 0x0c, 0x00, 0x00, 0x00, 0x10, 0x00, 0x00, 0x00,
    0x64, 0xea, 0xff, 0xff, 0x01, 0x00, 0x00, 0x00, 0x19, 0x00, 0x00, 0x00,
    0x02, 0x00, 0x00, 0x00, 0x18, 0x00, 0x00, 0x00, 0x01, 0x00, 0x00, 0x00,
    0x5e, 0xff, 0xff, 0xff, 0x0c, 0x00, 0x00, 0x00, 0x10, 0x00, 0x00, 0x00,
    0x02, 0x00, 0x00, 0x00, 0x01, 0x00, 0x00, 0x00, 0x18, 0x00, 0x00, 0x00,
    0x02, 0x00, 0x00, 0x00, 0x17, 0x00, 0x00, 0x00, 0x0f, 0x00, 0x00, 0x00,
    0x52, 0xff, 0xff, 0xff, 0x24, 0x00, 0x00, 0x00, 0x00, 0x00, 0x00, 0x05,
    0x34, 0x00, 0x00, 0x00, 0x38, 0x00, 0x00, 0x00, 0x03, 0x00, 0x00, 0x00,
    0x00, 0x00, 0x0e, 0x00, 0x18, 0x00, 0x17, 0x00, 0x10, 0x00, 0x0c, 0x00,
    0x08, 0x00, 0x04, 0x00, 0x0e, 0x00, 0x00, 0x00, 0x01, 0x00, 0x00, 0x00,
    0x04, 0x00, 0x00, 0x00, 0x01, 0x00, 0x00, 0x00, 0x04, 0x00, 0x00, 0x00,
    0x00, 0x00, 0x00, 0x01, 0x01, 0x00, 0x00, 0x00, 0x17, 0x00, 0x00, 0x00,
    0x01, 0x00, 0x00, 0x00, 0x16, 0x00, 0x00, 0x00, 0x42, 0xff, 0xff, 0xff,
    0x10, 0x00, 0x00, 0x00, 0x00, 0x00, 0x00, 0x34, 0x0c, 0x00, 0x00, 0x00,
    0x10, 0x00, 0x00, 0x00, 0x04, 0xeb, 0xff, 0xff, 0x01, 0x00, 0x00, 0x00,
    0x16, 0x00, 0x00, 0x00, 0x02, 0x00, 0x00, 0x00, 0x15, 0x00, 0x00, 0x00,
    0x02, 0x00, 0x00, 0x00, 0x00, 0x00, 0x0a, 0x00, 0x10, 0x00, 0x0c, 0x00,
    0x08, 0x00, 0x04, 0x00, 0x0a, 0x00, 0x00, 0x00, 0x0c, 0x00, 0x00, 0x00,
    0x10, 0x00, 0x00, 0x00, 0x02, 0x00, 0x00, 0x00, 0x01, 0x00, 0x00, 0x00,
    0x15, 0x00, 0x00, 0x00, 0x02, 0x00, 0x00, 0x00, 0x14, 0x00, 0x00, 0x00,
    0x10, 0x00, 0x00, 0x00, 0x00, 0x00, 0x0e, 0x00, 0x18, 0x00, 0x14, 0x00,
    0x10, 0x00, 0x0c, 0x00, 0x0b, 0x00, 0x04, 0x00, 0x0e, 0x00, 0x00, 0x00,
    0x20, 0x00, 0x00, 0x00, 0x00, 0x00, 0x00, 0x01, 0x2c, 0x00, 0x00, 0x00,
    0x30, 0x00, 0x00, 0x00, 0x01, 0x00, 0x00, 0x00, 0x0c, 0x00, 0x14, 0x00,
    0x13, 0x00, 0x0c, 0x00, 0x08, 0x00, 0x07, 0x00, 0x0c, 0x00, 0x00, 0x00,
    0x00, 0x00, 0x00, 0x01, 0x01, 0x00, 0x00, 0x00, 0x01, 0x00, 0x00, 0x00,
    0x00, 0x00, 0x00, 0x01, 0x01, 0x00, 0x00, 0x00, 0x14, 0x00, 0x00, 0x00,
    0x03, 0x00, 0x00, 0x00, 0x13, 0x00, 0x00, 0x00, 0x05, 0x00, 0x00, 0x00,
    0x09, 0x00, 0x00, 0x00, 0x00, 0x00, 0x0e, 0x00, 0x14, 0x00, 0x00, 0x00,
    0x10, 0x00, 0x0c, 0x00, 0x0b, 0x00, 0x04, 0x00, 0x0e, 0x00, 0x00, 0x00,
    0x10, 0x00, 0x00, 0x00, 0x00, 0x00, 0x00, 0x34, 0x0c, 0x00, 0x00, 0x00,
    0x10, 0x00, 0x00, 0x00, 0xd0, 0xeb, 0xff, 0xff, 0x01, 0x00, 0x00, 0x00,
    0x13, 0x00, 0x00, 0x00, 0x02, 0x00, 0x00, 0x00, 0x00, 0x00, 0x00, 0x00,
    0x01, 0x00, 0x00, 0x00, 0x01, 0x00, 0x00, 0x00, 0x28, 0x00, 0x00, 0x00,
    0x01, 0x00, 0x00, 0x00, 0x00, 0x00, 0x00, 0x00, 0x29, 0x00, 0x00, 0x00,
    0xd8, 0x13, 0x00, 0x00, 0x84, 0x13, 0x00, 0x00, 0x30, 0x13, 0x00, 0x00,
    0xf0, 0x12, 0x00, 0x00, 0x98, 0x12, 0x00, 0x00, 0x50, 0x12, 0x00, 0x00,
    0x14, 0x12, 0x00, 0x00, 0xd8, 0x11, 0x00, 0x00, 0x9c, 0x11, 0x00, 0x00,
    0x60, 0x11, 0x00, 0x00, 0x24, 0x11, 0x00, 0x00, 0xe0, 0x10, 0x00, 0x00,
    0x9c, 0x10, 0x00, 0x00, 0x58, 0x10, 0x00, 0x00, 0x14, 0x10, 0x00, 0x00,
    0xd0, 0x0f, 0x00, 0x00, 0x8c, 0x0f, 0x00, 0x00, 0x9c, 0x0d, 0x00, 0x00,
    0x7c, 0x0c, 0x00, 0x00, 0xfc, 0x0b, 0x00, 0x00, 0x24, 0x0b, 0x00, 0x00,
    0x78, 0x0a, 0x00, 0x00, 0xf4, 0x09, 0x00, 0x00, 0x7c, 0x09, 0x00, 0x00,
    0x04, 0x09, 0x00, 0x00, 0x84, 0x08, 0x00, 0x00, 0xa4, 0x07, 0x00, 0x00,
    0xf0, 0x06, 0x00, 0x00, 0x6c, 0x06, 0x00, 0x00, 0xf0, 0x05, 0x00, 0x00,
    0x74, 0x05, 0x00, 0x00, 0xf4, 0x04, 0x00, 0x00, 0x14, 0x04, 0x00, 0x00,
    0x60, 0x03, 0x00, 0x00, 0xdc, 0x02, 0x00, 0x00, 0x60, 0x02, 0x00, 0x00,
    0xe4, 0x01, 0x00, 0x00, 0x74, 0x01, 0x00, 0x00, 0xe0, 0x00, 0x00, 0x00,
    0x60, 0x00, 0x00, 0x00, 0x04, 0x00, 0x00, 0x00, 0xe2, 0xec, 0xff, 0xff,
    0x00, 0x00, 0x00, 0x01, 0x14, 0x00, 0x00, 0x00, 0x1c, 0x00, 0x00, 0x00,
    0x1c, 0x00, 0x00, 0x00, 0x29, 0x00, 0x00, 0x00, 0x34, 0x00, 0x00, 0x00,
    0x02, 0x00, 0x00, 0x00, 0xff, 0xff, 0xff, 0xff, 0x03, 0x00, 0x00, 0x00,
    0xc8, 0xec, 0xff, 0xff, 0x1b, 0x00, 0x00, 0x00, 0x53, 0x74, 0x61, 0x74,
    0x65, 0x66, 0x75, 0x6c, 0x50, 0x61, 0x72, 0x74, 0x69, 0x74, 0x69, 0x6f,
    0x6e, 0x65, 0x64, 0x43, 0x61, 0x6c, 0x6c, 0x5f, 0x31, 0x3a, 0x30, 0x00,
    0x02, 0x00, 0x00, 0x00, 0x01, 0x00, 0x00, 0x00, 0x03, 0x00, 0x00, 0x00,
    0x3a, 0xed, 0xff, 0xff, 0x00, 0x00, 0x00, 0x01, 0x14, 0x00, 0x00, 0x00,
    0x1c, 0x00, 0x00, 0x00, 0x1c, 0x00, 0x00, 0x00, 0x28, 0x00, 0x00, 0x00,
    0x58, 0x00, 0x00, 0x00, 0x02, 0x00, 0x00, 0x00, 0xff, 0xff, 0xff, 0xff,
    0x03, 0x00, 0x00, 0x00, 0x20, 0xed, 0xff, 0xff, 0x3c, 0x00, 0x00, 0x00,
    0x73, 0x65, 0x71, 0x75, 0x65, 0x6e, 0x74, 0x69, 0x61, 0x6c, 0x5f, 0x31,
    0x2f, 0x64, 0x65, 0x6e, 0x73, 0x65, 0x5f, 0x31, 0x5f, 0x32, 0x2f, 0x4d,
    0x61, 0x74, 0x4d, 0x75, 0x6c, 0x3b, 0x73, 0x65, 0x71, 0x75, 0x65, 0x6e,
    0x74, 0x69, 0x61, 0x6c, 0x5f, 0x31, 0x2f, 0x64, 0x65, 0x6e, 0x73, 0x65,
    0x5f, 0x31, 0x5f, 0x32, 0x2f, 0x42, 0x69, 0x61, 0x73, 0x41, 0x64, 0x64,
    0x00, 0x00, 0x00, 0x00, 0x02, 0x00, 0x00, 0x00, 0x01, 0x00, 0x00, 0x00,
    0x03, 0x00, 0x00, 0x00, 0xb6, 0xed, 0xff, 0xff, 0x00, 0x00, 0x00, 0x01,
    0x14, 0x00, 0x00, 0x00, 0x1c, 0x00, 0x00, 0x00, 0x1c, 0x00, 0x00, 0x00,
    0x27, 0x00, 0x00, 0x00, 0x6c, 0x00, 0x00, 0x00, 0x02, 0x00, 0x00, 0x00,
    0xff, 0xff, 0xff, 0xff, 0x10, 0x00, 0x00, 0x00, 0x9c, 0xed, 0xff, 0xff,
    0x52, 0x00, 0x00, 0x00, 0x73, 0x65, 0x71, 0x75, 0x65, 0x6e, 0x74, 0x69,
    0x61, 0x6c, 0x5f, 0x31, 0x2f, 0x64, 0x65, 0x6e, 0x73, 0x65, 0x5f, 0x31,
    0x2f, 0x4d, 0x61, 0x74, 0x4d, 0x75, 0x6c, 0x3b, 0x73, 0x65, 0x71, 0x75,
    0x65, 0x6e, 0x74, 0x69, 0x61, 0x6c, 0x5f, 0x31, 0x2f, 0x64, 0x65, 0x6e,
    0x73, 0x65, 0x5f, 0x31, 0x2f, 0x52, 0x65, 0x6c, 0x75, 0x3b, 0x73, 0x65,
    0x71, 0x75, 0x65, 0x6e, 0x74, 0x69, 0x61, 0x6c, 0x5f, 0x31, 0x2f, 0x64,
    0x65, 0x6e, 0x73, 0x65, 0x5f, 0x31, 0x2f, 0x42, 0x69, 0x61, 0x73, 0x41,
    0x64, 0x64, 0x00, 0x00, 0x02, 0x00, 0x00, 0x00, 0x01, 0x00, 0x00, 0x00,
    0x10, 0x00, 0x00, 0x00, 0x46, 0xee, 0xff, 0xff, 0x00, 0x00, 0x00, 0x01,
    0x14, 0x00, 0x00, 0x00, 0x1c, 0x00, 0x00, 0x00, 0x1c, 0x00, 0x00, 0x00,
    0x26, 0x00, 0x00, 0x00, 0x48, 0x00, 0x00, 0x00, 0x02, 0x00, 0x00, 0x00,
    0xff, 0xff, 0xff, 0xff, 0x20, 0x00, 0x00, 0x00, 0x2c, 0xee, 0xff, 0xff,
    0x2c, 0x00, 0x00, 0x00, 0x73, 0x65, 0x71, 0x75, 0x65, 0x6e, 0x74, 0x69,
    0x61, 0x6c, 0x5f, 0x31, 0x2f, 0x67, 0x6c, 0x6f, 0x62, 0x61, 0x6c, 0x5f,
    0x61, 0x76, 0x65, 0x72, 0x61, 0x67, 0x65, 0x5f, 0x70, 0x6f, 0x6f, 0x6c,
    0x69, 0x6e, 0x67, 0x31, 0x64, 0x5f, 0x31, 0x2f, 0x4d, 0x65, 0x61, 0x6e,
    0x00, 0x00, 0x00, 0x00, 0x02, 0x00, 0x00, 0x00, 0x01, 0x00, 0x00, 0x00,
    0x20, 0x00, 0x00, 0x00, 0xb2, 0xee, 0xff, 0xff, 0x00, 0x00, 0x00, 0x01,
    0x14, 0x00, 0x00, 0x00, 0x20, 0x00, 0x00, 0x00, 0x20, 0x00, 0x00, 0x00,
    0x25, 0x00, 0x00, 0x00, 0x50, 0x00, 0x00, 0x00, 0x03, 0x00, 0x00, 0x00,
    0xff, 0xff, 0xff, 0xff, 0xf7, 0x00, 0x00, 0x00, 0x20, 0x00, 0x00, 0x00,
    0x9c, 0xee, 0xff, 0xff, 0x30, 0x00, 0x00, 0x00, 0x73, 0x65, 0x71, 0x75,
    0x65, 0x6e, 0x74, 0x69, 0x61, 0x6c, 0x5f, 0x31, 0x2f, 0x6d, 0x61, 0x78,
    0x5f, 0x70, 0x6f, 0x6f, 0x6c, 0x69, 0x6e, 0x67, 0x31, 0x64, 0x5f, 0x32,
    0x5f, 0x31, 0x2f, 0x4d, 0x61, 0x78, 0x50, 0x6f, 0x6f, 0x6c, 0x31, 0x64,
    0x2f, 0x53, 0x71, 0x75, 0x65, 0x65, 0x7a, 0x65, 0x00, 0x00, 0x00, 0x00,
    0x03, 0x00, 0x00, 0x00, 0x01, 0x00, 0x00, 0x00, 0xf7, 0x00, 0x00, 0x00,
    0x20, 0x00, 0x00, 0x00, 0x2a, 0xef, 0xff, 0xff, 0x00, 0x00, 0x00, 0x01,
    0x14, 0x00, 0x00, 0x00, 0x24, 0x00, 0x00, 0x00, 0x24, 0x00, 0x00, 0x00,
    0x24, 0x00, 0x00, 0x00, 0x4c, 0x00, 0x00, 0x00, 0x04, 0x00, 0x00, 0x00,
    0xff, 0xff, 0xff, 0xff, 0x01, 0x00, 0x00, 0x00, 0xf7, 0x00, 0x00, 0x00,
    0x20, 0x00, 0x00, 0x00, 0x18, 0xef, 0xff, 0xff, 0x28, 0x00, 0x00, 0x00,
    0x73, 0x65, 0x71, 0x75, 0x65, 0x6e, 0x74, 0x69, 0x61, 0x6c, 0x5f, 0x31,
    0x2f, 0x6d, 0x61, 0x78, 0x5f, 0x70, 0x6f, 0x6f, 0x6c, 0x69, 0x6e, 0x67,
    0x31, 0x64, 0x5f, 0x32, 0x5f, 0x31, 0x2f, 0x4d, 0x61, 0x78, 0x50, 0x6f,
    0x6f, 0x6c, 0x31, 0x64, 0x00, 0x00, 0x00, 0x00, 0x04, 0x00, 0x00, 0x00,
    0x01, 0x00, 0x00, 0x00, 0x01, 0x00, 0x00, 0x00, 0xf7, 0x00, 0x00, 0x00,
    0x20, 0x00, 0x00, 0x00, 0xa2, 0xef, 0xff, 0xff, 0x00, 0x00, 0x00, 0x01,
    0x14, 0x00, 0x00, 0x00, 0x24, 0x00, 0x00, 0x00, 0x24, 0x00, 0x00, 0x00,
    0x23, 0x00, 0x00, 0x00, 0x54, 0x00, 0x00, 0x00, 0x04, 0x00, 0x00, 0x00,
    0xff, 0xff, 0xff, 0xff, 0x01, 0x00, 0x00, 0x00, 0xdf, 0x03, 0x00, 0x00,
    0x20, 0x00, 0x00, 0x00, 0x90, 0xef, 0xff, 0xff, 0x33, 0x00, 0x00, 0x00,
    0x73, 0x65, 0x71, 0x75, 0x65, 0x6e, 0x74, 0x69, 0x61, 0x6c, 0x5f, 0x31,
    0x2f, 0x6d, 0x61, 0x78, 0x5f, 0x70, 0x6f, 0x6f, 0x6c, 0x69, 0x6e, 0x67,
    0x31, 0x64, 0x5f, 0x32, 0x5f, 0x31, 0x2f, 0x4d, 0x61, 0x78, 0x50, 0x6f,
    0x6f, 0x6c, 0x31, 0x64, 0x2f, 0x45, 0x78, 0x70, 0x61, 0x6e, 0x64, 0x44,
    0x69, 0x6d, 0x73, 0x00, 0x04, 0x00, 0x00, 0x00, 0x01, 0x00, 0x00, 0x00,
    0x01, 0x00, 0x00, 0x00, 0xdf, 0x03, 0x00, 0x00, 0x20, 0x00, 0x00, 0x00,
    0x22, 0xf0, 0xff, 0xff, 0x00, 0x00, 0x00, 0x01, 0x14, 0x00, 0x00, 0x00,
    0x20, 0x00, 0x00, 0x00, 0x20, 0x00, 0x00, 0x00, 0x22, 0x00, 0x00, 0x00,
    0x88, 0x00, 0x00, 0x00, 0x03, 0x00, 0x00, 0x00, 0xff, 0xff, 0xff, 0xff,
    0xdf, 0x03, 0x00, 0x00, 0x20, 0x00, 0x00, 0x00, 0x0c, 0xf0, 0xff, 0xff,
    0x69, 0x00, 0x00, 0x00, 0x73, 0x65, 0x71, 0x75, 0x65, 0x6e, 0x74, 0x69,
    0x61, 0x6c, 0x5f, 0x31, 0x2f, 0x63, 0x6f, 0x6e, 0x76, 0x31, 0x64, 0x5f,
    0x32, 0x5f, 0x31, 0x2f, 0x52, 0x65, 0x6c, 0x75, 0x3b, 0x73, 0x65, 0x71,
    0x75, 0x65, 0x6e, 0x74, 0x69, 0x61, 0x6c, 0x5f, 0x31, 0x2f, 0x63, 0x6f,
    0x6e, 0x76, 0x31, 0x64, 0x5f, 0x32, 0x5f, 0x31, 0x2f, 0x42, 0x69, 0x61,
    0x73, 0x41, 0x64, 0x64, 0x3b, 0x73, 0x65, 0x71, 0x75, 0x65, 0x6e, 0x74,
    0x69, 0x61, 0x6c, 0x5f, 0x31, 0x2f, 0x63, 0x6f, 0x6e, 0x76, 0x31, 0x64,
    0x5f, 0x32, 0x5f, 0x31, 0x2f, 0x63, 0x6f, 0x6e, 0x76, 0x6f, 0x6c, 0x75,
    0x74, 0x69, 0x6f, 0x6e, 0x2f, 0x53, 0x71, 0x75, 0x65, 0x65, 0x7a, 0x65,
    0x3b, 0x00, 0x00, 0x00, 0x03, 0x00, 0x00, 0x00, 0x01, 0x00, 0x00, 0x00,
    0xdf, 0x03, 0x00, 0x00, 0x20, 0x00, 0x00, 0x00, 0xd2, 0xf0, 0xff, 0xff,
    0x00, 0x00, 0x00, 0x01, 0x14, 0x00, 0x00, 0x00, 0x24, 0x00, 0x00, 0x00,
    0x24, 0x00, 0x00, 0x00, 0x21, 0x00, 0x00, 0x00, 0xb0, 0x00, 0x00, 0x00,
    0x04, 0x00, 0x00, 0x00, 0xff, 0xff, 0xff, 0xff, 0x01, 0x00, 0x00, 0x00,
    0xdf, 0x03, 0x00, 0x00, 0x20, 0x00, 0x00, 0x00, 0xc0, 0xf0, 0xff, 0xff,
    0x8d, 0x00, 0x00, 0x00, 0x73, 0x65, 0x71, 0x75, 0x65, 0x6e, 0x74, 0x69,
    0x61, 0x6c, 0x5f, 0x31, 0x2f, 0x63, 0x6f, 0x6e, 0x76, 0x31, 0x64, 0x5f,
    0x32, 0x5f, 0x31, 0x2f, 0x52, 0x65, 0x6c, 0x75, 0x3b, 0x73, 0x65, 0x71,
    0x75, 0x65, 0x6e, 0x74, 0x69, 0x61, 0x6c, 0x5f, 0x31, 0x2f, 0x63, 0x6f,
    0x6e, 0x76, 0x31, 0x64, 0x5f, 0x32, 0x5f, 0x31, 0x2f, 0x42, 0x69, 0x61,
    0x73, 0x41, 0x64, 0x64, 0x3b, 0x73, 0x65, 0x71, 0x75, 0x65, 0x6e, 0x74,
    0x69, 0x61, 0x6c, 0x5f, 0x31, 0x2f, 0x63, 0x6f, 0x6e, 0x76, 0x31, 0x64,
    0x5f, 0x32, 0x5f, 0x31, 0x2f, 0x63, 0x6f, 0x6e, 0x76, 0x6f, 0x6c, 0x75,
    0x74, 0x69, 0x6f, 0x6e, 0x2f, 0x53, 0x71, 0x75, 0x65, 0x65, 0x7a, 0x65,
    0x3b, 0x3b, 0x73, 0x65, 0x71, 0x75, 0x65, 0x6e, 0x74, 0x69, 0x61, 0x6c,
    0x5f, 0x31, 0x2f, 0x63, 0x6f, 0x6e, 0x76, 0x31, 0x64, 0x5f, 0x32, 0x5f,
    0x31, 0x2f, 0x63, 0x6f, 0x6e, 0x76, 0x6f, 0x6c, 0x75, 0x74, 0x69, 0x6f,
    0x6e, 0x00, 0x00, 0x00, 0x04, 0x00, 0x00, 0x00, 0x01, 0x00, 0x00, 0x00,
    0x01, 0x00, 0x00, 0x00, 0xdf, 0x03, 0x00, 0x00, 0x20, 0x00, 0x00, 0x00,
    0xae, 0xf1, 0xff, 0xff, 0x00, 0x00, 0x00, 0x01, 0x14, 0x00, 0x00, 0x00,
    0x24, 0x00, 0x00, 0x00, 0x24, 0x00, 0x00, 0x00, 0x20, 0x00, 0x00, 0x00,
    0x50, 0x00, 0x00, 0x00, 0x04, 0x00, 0x00, 0x00, 0xff, 0xff, 0xff, 0xff,
    0x01, 0x00, 0x00, 0x00, 0xe5, 0x03, 0x00, 0x00, 0x10, 0x00, 0x00, 0x00,
    0x9c, 0xf1, 0xff, 0xff, 0x2e, 0x00, 0x00, 0x00, 0x73, 0x65, 0x71, 0x75,
    0x65, 0x6e, 0x74, 0x69, 0x61, 0x6c, 0x5f, 0x31, 0x2f, 0x63, 0x6f, 0x6e,
    0x76, 0x31, 0x64, 0x5f, 0x32, 0x5f, 0x31, 0x2f, 0x63, 0x6f, 0x6e, 0x76,
    0x6f, 0x6c, 0x75, 0x74, 0x69, 0x6f, 0x6e, 0x2f, 0x45, 0x78, 0x70, 0x61,
    0x6e, 0x64, 0x44, 0x69, 0x6d, 0x73, 0x00, 0x00, 0x04, 0x00, 0x00, 0x00,
    0x01, 0x00, 0x00, 0x00, 0x01, 0x00, 0x00, 0x00, 0xe5, 0x03, 0x00, 0x00,
    0x10, 0x00, 0x00, 0x00, 0x2a, 0xf2, 0xff, 0xff, 0x00, 0x00, 0x00, 0x01,
    0x14, 0x00, 0x00, 0x00, 0x20, 0x00, 0x00, 0x00, 0x20, 0x00, 0x00, 0x00,
    0x1f, 0x00, 0x00, 0x00, 0x50, 0x00, 0x00, 0x00, 0x03, 0x00, 0x00, 0x00,
    0xff, 0xff, 0xff, 0xff, 0xe5, 0x03, 0x00, 0x00, 0x10, 0x00, 0x00, 0x00,
    0x14, 0xf2, 0xff, 0xff, 0x30, 0x00, 0x00, 0x00, 0x73, 0x65, 0x71, 0x75,
    0x65, 0x6e, 0x74, 0x69, 0x61, 0x6c, 0x5f, 0x31, 0x2f, 0x6d, 0x61, 0x78,
    0x5f, 0x70, 0x6f, 0x6f, 0x6c, 0x69, 0x6e, 0x67, 0x31, 0x64, 0x5f, 0x31,
    0x5f, 0x32, 0x2f, 0x4d, 0x61, 0x78, 0x50, 0x6f, 0x6f, 0x6c, 0x31, 0x64,
    0x2f, 0x53, 0x71, 0x75, 0x65, 0x65, 0x7a, 0x65, 0x00, 0x00, 0x00, 0x00,
    0x03, 0x00, 0x00, 0x00, 0x01, 0x00, 0x00, 0x00, 0xe5, 0x03, 0x00, 0x00,
    0x10, 0x00, 0x00, 0x00, 0xa2, 0xf2, 0xff, 0xff, 0x00, 0x00, 0x00, 0x01,
    0x14, 0x00, 0x00, 0x00, 0x24, 0x00, 0x00, 0x00, 0x24, 0x00, 0x00, 0x00,
    0x1e, 0x00, 0x00, 0x00, 0x4c, 0x00, 0x00, 0x00, 0x04, 0x00, 0x00, 0x00,
    0xff, 0xff, 0xff, 0xff, 0x01, 0x00, 0x00, 0x00, 0xe5, 0x03, 0x00, 0x00,
    0x10, 0x00, 0x00, 0x00, 0x90, 0xf2, 0xff, 0xff, 0x28, 0x00, 0x00, 0x00,
    0x73, 0x65, 0x71, 0x75, 0x65, 0x6e, 0x74, 0x69, 0x61, 0x6c, 0x5f, 0x31,
    0x2f, 0x6d, 0x61, 0x78, 0x5f, 0x70, 0x6f, 0x6f, 0x6c, 0x69, 0x6e, 0x67,
    0x31, 0x64, 0x5f, 0x31, 0x5f, 0x32, 0x2f, 0x4d, 0x61, 0x78, 0x50, 0x6f,
    0x6f, 0x6c, 0x31, 0x64, 0x00, 0x00, 0x00, 0x00, 0x04, 0x00, 0x00, 0x00,
    0x01, 0x00, 0x00, 0x00, 0x01, 0x00, 0x00, 0x00, 0xe5, 0x03, 0x00, 0x00,
    0x10, 0x00, 0x00, 0x00, 0x1a, 0xf3, 0xff, 0xff, 0x00, 0x00, 0x00, 0x01,
    0x14, 0x00, 0x00, 0x00, 0x24, 0x00, 0x00, 0x00, 0x24, 0x00, 0x00, 0x00,
    0x1d, 0x00, 0x00, 0x00, 0x54, 0x00, 0x00, 0x00, 0x04, 0x00, 0x00, 0x00,
    0xff, 0xff, 0xff, 0xff, 0x01, 0x00, 0x00, 0x00, 0x95, 0x0f, 0x00, 0x00,
    0x10, 0x00, 0x00, 0x00, 0x08, 0xf3, 0xff, 0xff, 0x33, 0x00, 0x00, 0x00,
    0x73, 0x65, 0x71, 0x75, 0x65, 0x6e, 0x74, 0x69, 0x61, 0x6c, 0x5f, 0x31,
    0x2f, 0x6d, 0x61, 0x78, 0x5f, 0x70, 0x6f, 0x6f, 0x6c, 0x69, 0x6e, 0x67,
    0x31, 0x64, 0x5f, 0x31, 0x5f, 0x32, 0x2f, 0x4d, 0x61, 0x78, 0x50, 0x6f,
    0x6f, 0x6c, 0x31, 0x64, 0x2f, 0x45, 0x78, 0x70, 0x61, 0x6e, 0x64, 0x44,
    0x69, 0x6d, 0x73, 0x00, 0x04, 0x00, 0x00, 0x00, 0x01, 0x00, 0x00, 0x00,
    0x01, 0x00, 0x00, 0x00, 0x95, 0x0f, 0x00, 0x00, 0x10, 0x00, 0x00, 0x00,
    0x9a, 0xf3, 0xff, 0xff, 0x00, 0x00, 0x00, 0x01, 0x14, 0x00, 0x00, 0x00,
    0x20, 0x00, 0x00, 0x00, 0x20, 0x00, 0x00, 0x00, 0x1c, 0x00, 0x00, 0x00,
    0x88, 0x00, 0x00, 0x00, 0x03, 0x00, 0x00, 0x00, 0xff, 0xff, 0xff, 0xff,
    0x95, 0x0f, 0x00, 0x00, 0x10, 0x00, 0x00, 0x00, 0x84, 0xf3, 0xff, 0xff,
    0x69, 0x00, 0x00, 0x00, 0x73, 0x65, 0x71, 0x75, 0x65, 0x6e, 0x74, 0x69,
    0x61, 0x6c, 0x5f, 0x31, 0x2f, 0x63, 0x6f, 0x6e, 0x76, 0x31, 0x64, 0x5f,
    0x31, 0x5f, 0x32, 0x2f, 0x52, 0x65, 0x6c, 0x75, 0x3b, 0x73, 0x65, 0x71,
    0x75, 0x65, 0x6e, 0x74, 0x69, 0x61, 0x6c, 0x5f, 0x31, 0x2f, 0x63, 0x6f,
    0x6e, 0x76, 0x31, 0x64, 0x5f, 0x31, 0x5f, 0x32, 0x2f, 0x42, 0x69, 0x61,
    0x73, 0x41, 0x64, 0x64, 0x3b, 0x73, 0x65, 0x71, 0x75, 0x65, 0x6e, 0x74,
    0x69, 0x61, 0x6c, 0x5f, 0x31, 0x2f, 0x63, 0x6f, 0x6e, 0x76, 0x31, 0x64,
    0x5f, 0x31, 0x5f, 0x32, 0x2f, 0x63, 0x6f, 0x6e, 0x76, 0x6f, 0x6c, 0x75,
    0x74, 0x69, 0x6f, 0x6e, 0x2f, 0x53, 0x71, 0x75, 0x65, 0x65, 0x7a, 0x65,
    0x3b, 0x00, 0x00, 0x00, 0x03, 0x00, 0x00, 0x00, 0x01, 0x00, 0x00, 0x00,
    0x95, 0x0f, 0x00, 0x00, 0x10, 0x00, 0x00, 0x00, 0x4a, 0xf4, 0xff, 0xff,
    0x00, 0x00, 0x00, 0x01, 0x14, 0x00, 0x00, 0x00, 0x24, 0x00, 0x00, 0x00,
    0x24, 0x00, 0x00, 0x00, 0x1b, 0x00, 0x00, 0x00, 0xb0, 0x00, 0x00, 0x00,
    0x04, 0x00, 0x00, 0x00, 0xff, 0xff, 0xff, 0xff, 0x01, 0x00, 0x00, 0x00,
    0x95, 0x0f, 0x00, 0x00, 0x10, 0x00, 0x00, 0x00, 0x38, 0xf4, 0xff, 0xff,
    0x8d, 0x00, 0x00, 0x00, 0x73, 0x65, 0x71, 0x75, 0x65, 0x6e, 0x74, 0x69,
    0x61, 0x6c, 0x5f, 0x31, 0x2f, 0x63, 0x6f, 0x6e, 0x76, 0x31, 0x64, 0x5f,
    0x31, 0x5f, 0x32, 0x2f, 0x52, 0x65, 0x6c, 0x75, 0x3b, 0x73, 0x65, 0x71,
    0x75, 0x65, 0x6e, 0x74, 0x69, 0x61, 0x6c, 0x5f, 0x31, 0x2f, 0x63, 0x6f,
    0x6e, 0x76, 0x31, 0x64, 0x5f, 0x31, 0x5f, 0x32, 0x2f, 0x42, 0x69, 0x61,
    0x73, 0x41, 0x64, 0x64, 0x3b, 0x73, 0x65, 0x71, 0x75, 0x65, 0x6e, 0x74,
    0x69, 0x61, 0x6c, 0x5f, 0x31, 0x2f, 0x63, 0x6f, 0x6e, 0x76, 0x31, 0x64,
    0x5f, 0x31, 0x5f, 0x32, 0x2f, 0x63, 0x6f, 0x6e, 0x76, 0x6f, 0x6c, 0x75,
    0x74, 0x69, 0x6f, 0x6e, 0x2f, 0x53, 0x71, 0x75, 0x65, 0x65, 0x7a, 0x65,
    0x3b, 0x3b, 0x73, 0x65, 0x71, 0x75, 0x65, 0x6e, 0x74, 0x69, 0x61, 0x6c,
    0x5f, 0x31, 0x2f, 0x63, 0x6f, 0x6e, 0x76, 0x31, 0x64, 0x5f, 0x31, 0x5f,
    0x32, 0x2f, 0x63, 0x6f, 0x6e, 0x76, 0x6f, 0x6c, 0x75, 0x74, 0x69, 0x6f,
    0x6e, 0x00, 0x00, 0x00, 0x04, 0x00, 0x00, 0x00, 0x01, 0x00, 0x00, 0x00,
    0x01, 0x00, 0x00, 0x00, 0x95, 0x0f, 0x00, 0x00, 0x10, 0x00, 0x00, 0x00,
    0x26, 0xf5, 0xff, 0xff, 0x00, 0x00, 0x00, 0x01, 0x14, 0x00, 0x00, 0x00,
    0x24, 0x00, 0x00, 0x00, 0x24, 0x00, 0x00, 0x00, 0x1a, 0x00, 0x00, 0x00,
    0x50, 0x00, 0x00, 0x00, 0x04, 0x00, 0x00, 0x00, 0xff, 0xff, 0xff, 0xff,
    0x01, 0x00, 0x00, 0x00, 0x9d, 0x0f, 0x00, 0x00, 0x08, 0x00, 0x00, 0x00,
    0x14, 0xf5, 0xff, 0xff, 0x2e, 0x00, 0x00, 0x00, 0x73, 0x65, 0x71, 0x75,
    0x65, 0x6e, 0x74, 0x69, 0x61, 0x6c, 0x5f, 0x31, 0x2f, 0x63, 0x6f, 0x6e,
    0x76, 0x31, 0x64, 0x5f, 0x31, 0x5f, 0x32, 0x2f, 0x63, 0x6f, 0x6e, 0x76,
    0x6f, 0x6c, 0x75, 0x74, 0x69, 0x6f, 0x6e, 0x2f, 0x45, 0x78, 0x70, 0x61,
    0x6e, 0x64, 0x44, 0x69, 0x6d, 0x73, 0x00, 0x00, 0x04, 0x00, 0x00, 0x00,
    0x01, 0x00, 0x00, 0x00, 0x01, 0x00, 0x00, 0x00, 0x9d, 0x0f, 0x00, 0x00,
    0x08, 0x00, 0x00, 0x00, 0xa2, 0xf5, 0xff, 0xff, 0x00, 0x00, 0x00, 0x01,
    0x14, 0x00, 0x00, 0x00, 0x20, 0x00, 0x00, 0x00, 0x20, 0x00, 0x00, 0x00,
    0x19, 0x00, 0x00, 0x00, 0x4c, 0x00, 0x00, 0x00, 0x03, 0x00, 0x00, 0x00,
    0xff, 0xff, 0xff, 0xff, 0x9d, 0x0f, 0x00, 0x00, 0x08, 0x00, 0x00, 0x00,
    0x8c, 0xf5, 0xff, 0xff, 0x2e, 0x00, 0x00, 0x00, 0x73, 0x65, 0x71, 0x75,
    0x65, 0x6e, 0x74, 0x69, 0x61, 0x6c, 0x5f, 0x31, 0x2f, 0x6d, 0x61, 0x78,
    0x5f, 0x70, 0x6f, 0x6f, 0x6c, 0x69, 0x6e, 0x67, 0x31, 0x64, 0x5f, 0x31,
    0x2f, 0x4d, 0x61, 0x78, 0x50, 0x6f, 0x6f, 0x6c, 0x31, 0x64, 0x2f, 0x53,
    0x71, 0x75, 0x65, 0x65, 0x7a, 0x65, 0x00, 0x00, 0x03, 0x00, 0x00, 0x00,
    0x01, 0x00, 0x00, 0x00, 0x9d, 0x0f, 0x00, 0x00, 0x08, 0x00, 0x00, 0x00,
    0x16, 0xf6, 0xff, 0xff, 0x00, 0x00, 0x00, 0x01, 0x14, 0x00, 0x00, 0x00,
    0x24, 0x00, 0x00, 0x00, 0x24, 0x00, 0x00, 0x00, 0x18, 0x00, 0x00, 0x00,
    0x48, 0x00, 0x00, 0x00, 0x04, 0x00, 0x00, 0x00, 0xff, 0xff, 0xff, 0xff,
    0x01, 0x00, 0x00, 0x00, 0x9d, 0x0f, 0x00, 0x00, 0x08, 0x00, 0x00, 0x00,
    0x04, 0xf6, 0xff, 0xff, 0x26, 0x00, 0x00, 0x00, 0x73, 0x65, 0x71, 0x75,
    0x65, 0x6e, 0x74, 0x69, 0x61, 0x6c, 0x5f, 0x31, 0x2f, 0x6d, 0x61, 0x78,
    0x5f, 0x70, 0x6f, 0x6f, 0x6c, 0x69, 0x6e, 0x67, 0x31, 0x64, 0x5f, 0x31,
    0x2f, 0x4d, 0x61, 0x78, 0x50, 0x6f, 0x6f, 0x6c, 0x31, 0x64, 0x00, 0x00,
    0x04, 0x00, 0x00, 0x00, 0x01, 0x00, 0x00, 0x00, 0x01, 0x00, 0x00, 0x00,
    0x9d, 0x0f, 0x00, 0x00, 0x08, 0x00, 0x00, 0x00, 0x8a, 0xf6, 0xff, 0xff,
    0x00, 0x00, 0x00, 0x01, 0x14, 0x00, 0x00, 0x00, 0x24, 0x00, 0x00, 0x00,
    0x24, 0x00, 0x00, 0x00, 0x17, 0x00, 0x00, 0x00, 0x54, 0x00, 0x00, 0x00,
    0x04, 0x00, 0x00, 0x00, 0xff, 0xff, 0xff, 0xff, 0x01, 0x00, 0x00, 0x00,
    0x74, 0x3e, 0x00, 0x00, 0x08, 0x00, 0x00, 0x00, 0x78, 0xf6, 0xff, 0xff,
    0x31, 0x00, 0x00, 0x00, 0x73, 0x65, 0x71, 0x75, 0x65, 0x6e, 0x74, 0x69,
    0x61, 0x6c, 0x5f, 0x31, 0x2f, 0x6d, 0x61, 0x78, 0x5f, 0x70, 0x6f, 0x6f,
    0x6c, 0x69, 0x6e, 0x67, 0x31, 0x64, 0x5f, 0x31, 0x2f, 0x4d, 0x61, 0x78,
    0x50, 0x6f, 0x6f, 0x6c, 0x31, 0x64, 0x2f, 0x45, 0x78, 0x70, 0x61, 0x6e,
    0x64, 0x44, 0x69, 0x6d, 0x73, 0x00, 0x00, 0x00, 0x04, 0x00, 0x00, 0x00,
    0x01, 0x00, 0x00, 0x00, 0x01, 0x00, 0x00, 0x00, 0x74, 0x3e, 0x00, 0x00,
    0x08, 0x00, 0x00, 0x00, 0x0a, 0xf7, 0xff, 0xff, 0x00, 0x00, 0x00, 0x01,
    0x14, 0x00, 0x00, 0x00, 0x20, 0x00, 0x00, 0x00, 0x20, 0x00, 0x00, 0x00,
    0x16, 0x00, 0x00, 0x00, 0x80, 0x00, 0x00, 0x00, 0x03, 0x00, 0x00, 0x00,
    0xff, 0xff, 0xff, 0xff, 0x74, 0x3e, 0x00, 0x00, 0x08, 0x00, 0x00, 0x00,
    0xf4, 0xf6, 0xff, 0xff, 0x63, 0x00, 0x00, 0x00, 0x73, 0x65, 0x71, 0x75,
    0x65, 0x6e, 0x74, 0x69, 0x61, 0x6c, 0x5f, 0x31, 0x2f, 0x63, 0x6f, 0x6e,
    0x76, 0x31, 0x64, 0x5f, 0x31, 0x2f, 0x52, 0x65, 0x6c, 0x75, 0x3b, 0x73,
    0x65, 0x71, 0x75, 0x65, 0x6e, 0x74, 0x69, 0x61, 0x6c, 0x5f, 0x31, 0x2f,
    0x63, 0x6f, 0x6e, 0x76, 0x31, 0x64, 0x5f, 0x31, 0x2f, 0x42, 0x69, 0x61,
    0x73, 0x41, 0x64, 0x64, 0x3b, 0x73, 0x65, 0x71, 0x75, 0x65, 0x6e, 0x74,
    0x69, 0x61, 0x6c, 0x5f, 0x31, 0x2f, 0x63, 0x6f, 0x6e, 0x76, 0x31, 0x64,
    0x5f, 0x31, 0x2f, 0x63, 0x6f, 0x6e, 0x76, 0x6f, 0x6c, 0x75, 0x74, 0x69,
    0x6f, 0x6e, 0x2f, 0x53, 0x71, 0x75, 0x65, 0x65, 0x7a, 0x65, 0x3b, 0x00,
    0x03, 0x00, 0x00, 0x00, 0x01, 0x00, 0x00, 0x00, 0x74, 0x3e, 0x00, 0x00,
    0x08, 0x00, 0x00, 0x00, 0xb2, 0xf7, 0xff, 0xff, 0x00, 0x00, 0x00, 0x01,
    0x14, 0x00, 0x00, 0x00, 0x24, 0x00, 0x00, 0x00, 0x24, 0x00, 0x00, 0x00,
    0x15, 0x00, 0x00, 0x00, 0xa8, 0x00, 0x00, 0x00, 0x04, 0x00, 0x00, 0x00,
    0xff, 0xff, 0xff, 0xff, 0x01, 0x00, 0x00, 0x00, 0x74, 0x3e, 0x00, 0x00,
    0x08, 0x00, 0x00, 0x00, 0xa0, 0xf7, 0xff, 0xff, 0x85, 0x00, 0x00, 0x00,
    0x73, 0x65, 0x71, 0x75, 0x65, 0x6e, 0x74, 0x69, 0x61, 0x6c, 0x5f, 0x31,
    0x2f, 0x63, 0x6f, 0x6e, 0x76, 0x31, 0x64, 0x5f, 0x31, 0x2f, 0x52, 0x65,
    0x6c, 0x75, 0x3b, 0x73, 0x65, 0x71, 0x75, 0x65, 0x6e, 0x74, 0x69, 0x61,
    0x6c, 0x5f, 0x31, 0x2f, 0x63, 0x6f, 0x6e, 0x76, 0x31, 0x64, 0x5f, 0x31,
    0x2f, 0x42, 0x69, 0x61, 0x73, 0x41, 0x64, 0x64, 0x3b, 0x73, 0x65, 0x71,
    0x75, 0x65, 0x6e, 0x74, 0x69, 0x61, 0x6c, 0x5f, 0x31, 0x2f, 0x63, 0x6f,
    0x6e, 0x76, 0x31, 0x64, 0x5f, 0x31, 0x2f, 0x63, 0x6f, 0x6e, 0x76, 0x6f,
    0x6c, 0x75, 0x74, 0x69, 0x6f, 0x6e, 0x2f, 0x53, 0x71, 0x75, 0x65, 0x65,
    0x7a, 0x65, 0x3b, 0x3b, 0x73, 0x65, 0x71, 0x75, 0x65, 0x6e, 0x74, 0x69,
    0x61, 0x6c, 0x5f, 0x31, 0x2f, 0x63, 0x6f, 0x6e, 0x76, 0x31, 0x64, 0x5f,
    0x31, 0x2f, 0x63, 0x6f, 0x6e, 0x76, 0x6f, 0x6c, 0x75, 0x74, 0x69, 0x6f,
    0x6e, 0x00, 0x00, 0x00, 0x04, 0x00, 0x00, 0x00, 0x01, 0x00, 0x00, 0x00,
    0x01, 0x00, 0x00, 0x00, 0x74, 0x3e, 0x00, 0x00, 0x08, 0x00, 0x00, 0x00,
    0x86, 0xf8, 0xff, 0xff, 0x00, 0x00, 0x00, 0x01, 0x14, 0x00, 0x00, 0x00,
    0x24, 0x00, 0x00, 0x00, 0x24, 0x00, 0x00, 0x00, 0x14, 0x00, 0x00, 0x00,
    0x50, 0x00, 0x00, 0x00, 0x04, 0x00, 0x00, 0x00, 0xff, 0xff, 0xff, 0xff,
    0x01, 0x00, 0x00, 0x00, 0x80, 0x3e, 0x00, 0x00, 0x01, 0x00, 0x00, 0x00,
    0x74, 0xf8, 0xff, 0xff, 0x2c, 0x00, 0x00, 0x00, 0x73, 0x65, 0x71, 0x75,
    0x65, 0x6e, 0x74, 0x69, 0x61, 0x6c, 0x5f, 0x31, 0x2f, 0x63, 0x6f, 0x6e,
    0x76, 0x31, 0x64, 0x5f, 0x31, 0x2f, 0x63, 0x6f, 0x6e, 0x76, 0x6f, 0x6c,
    0x75, 0x74, 0x69, 0x6f, 0x6e, 0x2f, 0x45, 0x78, 0x70, 0x61, 0x6e, 0x64,
    0x44, 0x69, 0x6d, 0x73, 0x00, 0x00, 0x00, 0x00, 0x04, 0x00, 0x00, 0x00,
    0x01, 0x00, 0x00, 0x00, 0x01, 0x00, 0x00, 0x00, 0x80, 0x3e, 0x00, 0x00,
    0x01, 0x00, 0x00, 0x00, 0x52, 0xf9, 0xff, 0xff, 0x00, 0x00, 0x00, 0x01,
    0x14, 0x00, 0x00, 0x00, 0xe4, 0x00, 0x00, 0x00, 0x13, 0x00, 0x00, 0x00,
    0x00, 0x00, 0x00, 0x09, 0xf0, 0x00, 0x00, 0x00, 0xe4, 0xfe, 0xff, 0xff,
    0x08, 0x00, 0x00, 0x00, 0x88, 0x00, 0x00, 0x00, 0x10, 0x00, 0x00, 0x00,
    0x00, 0x00, 0x00, 0x00, 0x00, 0x00, 0x00, 0x00, 0x00, 0x00, 0x00, 0x00,
    0x00, 0x00, 0x00, 0x00, 0x00, 0x00, 0x00, 0x00, 0x00, 0x00, 0x00, 0x00,
    0x00, 0x00, 0x00, 0x00, 0x00, 0x00, 0x00, 0x00, 0x00, 0x00, 0x00, 0x00,
    0x00, 0x00, 0x00, 0x00, 0x00, 0x00, 0x00, 0x00, 0x00, 0x00, 0x00, 0x00,
    0x00, 0x00, 0x00, 0x00, 0x00, 0x00, 0x00, 0x00, 0x00, 0x00, 0x00, 0x00,
    0x00, 0x00, 0x00, 0x00, 0x00, 0x00, 0x00, 0x00, 0x00, 0x00, 0x00, 0x00,
    0x00, 0x00, 0x00, 0x00, 0x00, 0x00, 0x00, 0x00, 0x00, 0x00, 0x00, 0x00,
    0x00, 0x00, 0x00, 0x00, 0x00, 0x00, 0x00, 0x00, 0x00, 0x00, 0x00, 0x00,
    0x00, 0x00, 0x00, 0x00, 0x00, 0x00, 0x00, 0x00, 0x00, 0x00, 0x00, 0x00,
    0x00, 0x00, 0x00, 0x00, 0x00, 0x00, 0x00, 0x00, 0x00, 0x00, 0x00, 0x00,
    0x00, 0x00, 0x00, 0x00, 0x00, 0x00, 0x00, 0x00, 0x10, 0x00, 0x00, 0x00,
    0x5a, 0xc5, 0x0c, 0x3b, 0x1f, 0xd6, 0xed, 0x3a, 0x1a, 0x16, 0x18, 0x3b,
    0x30, 0x98, 0x00, 0x3b, 0x2b, 0xd7, 0x04, 0x3b, 0x82, 0x4d, 0x04, 0x3b,
    0xe0, 0x66, 0x09, 0x3b, 0x43, 0x45, 0x25, 0x3b, 0xbd, 0xa9, 0x0f, 0x3b,
    0xea, 0x8d, 0x07, 0x3b, 0xb0, 0xc9, 0x0a, 0x3b, 0x3e, 0x99, 0xbc, 0x3a,
    0x65, 0xc0, 0x14, 0x3b, 0x68, 0xb4, 0x02, 0x3b, 0xd4, 0xab, 0x11, 0x3b,
    0x53, 0xa5, 0xf4, 0x3a, 0x12, 0x00, 0x00, 0x00, 0x74, 0x66, 0x6c, 0x2e,
    0x70, 0x73, 0x65, 0x75, 0x64, 0x6f, 0x5f, 0x71, 0x63, 0x6f, 0x6e, 0x73,
    0x74, 0x31, 0x00, 0x00, 0x04, 0x00, 0x00, 0x00, 0x10, 0x00, 0x00, 0x00,
    0x01, 0x00, 0x00, 0x00, 0x09, 0x00, 0x00, 0x00, 0x08, 0x00, 0x00, 0x00,
    0x6e, 0xfa, 0xff, 0xff, 0x00, 0x00, 0x00, 0x01, 0x20, 0x00, 0x00, 0x00,
    0xb4, 0x01, 0x00, 0x00, 0x12, 0x00, 0x00, 0x00, 0x00, 0x00, 0x00, 0x09,
    0xc0, 0x01, 0x00, 0x00, 0x0c, 0x00, 0x0c, 0x00, 0x00, 0x00, 0x00, 0x00,
    0x08, 0x00, 0x04, 0x00, 0x0c, 0x00, 0x00, 0x00, 0x08, 0x00, 0x00, 0x00,
    0x0c, 0x01, 0x00, 0x00, 0x20, 0x00, 0x00, 0x00, 0x00, 0x00, 0x00, 0x00,
    0x00, 0x00, 0x00, 0x00, 0x00, 0x00, 0x00, 0x00, 0x00, 0x00, 0x00, 0x00,
    0x00, 0x00, 0x00, 0x00, 0x00, 0x00, 0x00, 0x00, 0x00, 0x00, 0x00, 0x00,
    0x00, 0x00, 0x00, 0x00, 0x00, 0x00, 0x00, 0x00, 0x00, 0x00, 0x00, 0x00,
    0x00, 0x00, 0x00, 0x00, 0x00, 0x00, 0x00, 0x00, 0x00, 0x00, 0x00, 0x00,
    0x00, 0x00, 0x00, 0x00, 0x00, 0x00, 0x00, 0x00, 0x00, 0x00, 0x00, 0x00,
    0x00, 0x00, 0x00, 0x00, 0x00, 0x00, 0x00, 0x00, 0x00, 0x00, 0x00, 0x00,
    0x00, 0x00, 0x00, 0x00, 0x00, 0x00, 0x00, 0x00, 0x00, 0x00, 0x00, 0x00,
    0x00, 0x00, 0x00, 0x00, 0x00, 0x00, 0x00, 0x00, 0x00, 0x00, 0x00, 0x00,
    0x00, 0x00, 0x00, 0x00, 0x00, 0x00, 0x00, 0x00, 0x00, 0x00, 0x00, 0x00,
    0x00, 0x00, 0x00, 0x00, 0x00, 0x00, 0x00, 0x00, 0x00, 0x00, 0x00, 0x00,
    0x00, 0x00, 0x00, 0x00, 0x00, 0x00, 0x00, 0x00, 0x00, 0x00, 0x00, 0x00,
    0x00, 0x00, 0x00, 0x00, 0x00, 0x00, 0x00, 0x00, 0x00, 0x00, 0x00, 0x00,
    0x00, 0x00, 0x00, 0x00, 0x00, 0x00, 0x00, 0x00, 0x00, 0x00, 0x00, 0x00,
    0x00, 0x00, 0x00, 0x00, 0x00, 0x00, 0x00, 0x00, 0x00, 0x00, 0x00, 0x00,
    0x00, 0x00, 0x00, 0x00, 0x00, 0x00, 0x00, 0x00, 0x00, 0x00, 0x00, 0x00,
    0x00, 0x00, 0x00, 0x00, 0x00, 0x00, 0x00, 0x00, 0x00, 0x00, 0x00, 0x00,
    0x00, 0x00, 0x00, 0x00, 0x00, 0x00, 0x00, 0x00, 0x00, 0x00, 0x00, 0x00,
    0x00, 0x00, 0x00, 0x00, 0x00, 0x00, 0x00, 0x00, 0x00, 0x00, 0x00, 0x00,
    0x00, 0x00, 0x00, 0x00, 0x00, 0x00, 0x00, 0x00, 0x00, 0x00, 0x00, 0x00,
    0x00, 0x00, 0x00, 0x00, 0x00, 0x00, 0x00, 0x00, 0x00, 0x00, 0x00, 0x00,
    0x00, 0x00, 0x00, 0x00, 0x00, 0x00, 0x00, 0x00, 0x00, 0x00, 0x00, 0x00,
    0x00, 0x00, 0x00, 0x00, 0x20, 0x00, 0x00, 0x00, 0x0b, 0x3c, 0x96, 0x3a,
    0x42, 0x05, 0xad, 0x3a, 0x49, 0xaf, 0xa4, 0x3a, 0x8a, 0x56, 0xd8, 0x3a,
    0x6f, 0x4b, 0x96, 0x3a, 0xe6, 0x48, 0xd0, 0x3a, 0xa7, 0x5a, 0x90, 0x3a,
    0xbb, 0x4d, 0x8a, 0x3a, 0x50, 0x07, 0xcc, 0x3a, 0x58, 0xa0, 0x92, 0x3a,
    0xda, 0x41, 0xf1, 0x3a, 0x26, 0x30, 0xb4, 0x3a, 0xa8, 0x59, 0xe5, 0x3a,
    0x45, 0x8c, 0x9f, 0x3a, 0x66, 0x74, 0x89, 0x3a, 0x88, 0xd4, 0xdf, 0x3a,
    0x14, 0x71, 0xe9, 0x3a, 0xfd, 0xec, 0xec, 0x3a, 0x1e, 0x8d, 0xff, 0x3a,
    0x11, 0xa1, 0xd7, 0x3a, 0x57, 0xcd, 0xf4, 0x3a, 0xf7, 0xd6, 0xd0, 0x3a,
    0x44, 0xe4, 0x0f, 0x3b, 0x13, 0x6f, 0x9b, 0x3a, 0x6a, 0xd8, 0x06, 0x3b,
    0xc6, 0xd7, 0xa0, 0x3a, 0x5f, 0xc3, 0x94, 0x3a, 0x6f, 0xf5, 0x0d, 0x3b,
    0xdd, 0xe2, 0xc1, 0x3a, 0xa6, 0xc7, 0xc6, 0x3a, 0x6b, 0x59, 0xac, 0x3a,
    0xc3, 0x80, 0xdf, 0x3a, 0x11, 0x00, 0x00, 0x00, 0x74, 0x66, 0x6c, 0x2e,
    0x70, 0x73, 0x65, 0x75, 0x64, 0x6f, 0x5f, 0x71, 0x63, 0x6f, 0x6e, 0x73,
    0x74, 0x00, 0x00, 0x00, 0x04, 0x00, 0x00, 0x00, 0x20, 0x00, 0x00, 0x00,
    0x01, 0x00, 0x00, 0x00, 0x07, 0x00, 0x00, 0x00, 0x10, 0x00, 0x00, 0x00,
    0x5a, 0xfc, 0xff, 0xff, 0x00, 0x00, 0x00, 0x01, 0x14, 0x00, 0x00, 0x00,
    0x14, 0x00, 0x00, 0x00, 0x11, 0x00, 0x00, 0x00, 0x00, 0x00, 0x00, 0x02,
    0x20, 0x00, 0x00, 0x00, 0xe4, 0xfb, 0xff, 0xff, 0x10, 0x00, 0x00, 0x00,
    0x61, 0x72, 0x69, 0x74, 0x68, 0x2e, 0x63, 0x6f, 0x6e, 0x73, 0x74, 0x61,
    0x6e, 0x74, 0x31, 0x35, 0x00, 0x00, 0x00, 0x00, 0x01, 0x00, 0x00, 0x00,
    0x03, 0x00, 0x00, 0x00, 0x9a, 0xfc, 0xff, 0xff, 0x00, 0x00, 0x00, 0x01,
    0x14, 0x00, 0x00, 0x00, 0x14, 0x00, 0x00, 0x00, 0x10, 0x00, 0x00, 0x00,
    0x00, 0x00, 0x00, 0x02, 0x20, 0x00, 0x00, 0x00, 0x24, 0xfc, 0xff, 0xff,
    0x10, 0x00, 0x00, 0x00, 0x61, 0x72, 0x69, 0x74, 0x68, 0x2e, 0x63, 0x6f,
    0x6e, 0x73, 0x74, 0x61, 0x6e, 0x74, 0x31, 0x34, 0x00, 0x00, 0x00, 0x00,
    0x01, 0x00, 0x00, 0x00, 0x03, 0x00, 0x00, 0x00, 0xda, 0xfc, 0xff, 0xff,
    0x00, 0x00, 0x00, 0x01, 0x14, 0x00, 0x00, 0x00, 0x14, 0x00, 0x00, 0x00,
    0x0f, 0x00, 0x00, 0x00, 0x00, 0x00, 0x00, 0x02, 0x20, 0x00, 0x00, 0x00,
    0x64, 0xfc, 0xff, 0xff, 0x10, 0x00, 0x00, 0x00, 0x61, 0x72, 0x69, 0x74,
    0x68, 0x2e, 0x63, 0x6f, 0x6e, 0x73, 0x74, 0x61, 0x6e, 0x74, 0x31, 0x33,
    0x00, 0x00, 0x00, 0x00, 0x01, 0x00, 0x00, 0x00, 0x03, 0x00, 0x00, 0x00,
    0x1a, 0xfd, 0xff, 0xff, 0x00, 0x00, 0x00, 0x01, 0x14, 0x00, 0x00, 0x00,
    0x14, 0x00, 0x00, 0x00, 0x0e, 0x00, 0x00, 0x00, 0x00, 0x00, 0x00, 0x02,
    0x20, 0x00, 0x00, 0x00, 0xa4, 0xfc, 0xff, 0xff, 0x10, 0x00, 0x00, 0x00,
    0x61, 0x72, 0x69, 0x74, 0x68, 0x2e, 0x63, 0x6f, 0x6e, 0x73, 0x74, 0x61,
    0x6e, 0x74, 0x31, 0x32, 0x00, 0x00, 0x00, 0x00, 0x01, 0x00, 0x00, 0x00,
    0x03, 0x00, 0x00, 0x00, 0x5a, 0xfd, 0xff, 0xff, 0x00, 0x00, 0x00, 0x01,
    0x14, 0x00, 0x00, 0x00, 0x14, 0x00, 0x00, 0x00, 0x0d, 0x00, 0x00, 0x00,
    0x00, 0x00, 0x00, 0x02, 0x20, 0x00, 0x00, 0x00, 0xe4, 0xfc, 0xff, 0xff,
    0x10, 0x00, 0x00, 0x00, 0x61, 0x72, 0x69, 0x74, 0x68, 0x2e, 0x63, 0x6f,
    0x6e, 0x73, 0x74, 0x61, 0x6e, 0x74, 0x31, 0x31, 0x00, 0x00, 0x00, 0x00,
    0x01, 0x00, 0x00, 0x00, 0x03, 0x00, 0x00, 0x00, 0x9a, 0xfd, 0xff, 0xff,
    0x00, 0x00, 0x00, 0x01, 0x14, 0x00, 0x00, 0x00, 0x14, 0x00, 0x00, 0x00,
    0x0c, 0x00, 0x00, 0x00, 0x00, 0x00, 0x00, 0x02, 0x20, 0x00, 0x00, 0x00,
    0x24, 0xfd, 0xff, 0xff, 0x10, 0x00, 0x00, 0x00, 0x61, 0x72, 0x69, 0x74,
    0x68, 0x2e, 0x63, 0x6f, 0x6e, 0x73, 0x74, 0x61, 0x6e, 0x74, 0x31, 0x30,
    0x00, 0x00, 0x00, 0x00, 0x01, 0x00, 0x00, 0x00, 0x03, 0x00, 0x00, 0x00,
    0x66, 0xfe, 0xff, 0xff, 0x00, 0x00, 0x00, 0x01, 0x10, 0x00, 0x00, 0x00,
    0x10, 0x00, 0x00, 0x00, 0x0b, 0x00, 0x00, 0x00, 0x1c, 0x00, 0x00, 0x00,
    0x60, 0xfd, 0xff, 0xff, 0x0f, 0x00, 0x00, 0x00, 0x61, 0x72, 0x69, 0x74,
    0x68, 0x2e, 0x63, 0x6f, 0x6e, 0x73, 0x74, 0x61, 0x6e, 0x74, 0x39, 0x00,
    0x01, 0x00, 0x00, 0x00, 0x03, 0x00, 0x00, 0x00, 0x9e, 0xfe, 0xff, 0xff,
    0x00, 0x00, 0x00, 0x01, 0x10, 0x00, 0x00, 0x00, 0x10, 0x00, 0x00, 0x00,
    0x0a, 0x00, 0x00, 0x00, 0x1c, 0x00, 0x00, 0x00, 0x98, 0xfd, 0xff, 0xff,
    0x0f, 0x00, 0x00, 0x00, 0x61, 0x72, 0x69, 0x74, 0x68, 0x2e, 0x63, 0x6f,
    0x6e, 0x73, 0x74, 0x61, 0x6e, 0x74, 0x38, 0x00, 0x01, 0x00, 0x00, 0x00,
    0x08, 0x00, 0x00, 0x00, 0xd6, 0xfe, 0xff, 0xff, 0x00, 0x00, 0x00, 0x01,
    0x10, 0x00, 0x00, 0x00, 0x10, 0x00, 0x00, 0x00, 0x09, 0x00, 0x00, 0x00,
    0x1c, 0x00, 0x00, 0x00, 0xd0, 0xfd, 0xff, 0xff, 0x0f, 0x00, 0x00, 0x00,
    0x61, 0x72, 0x69, 0x74, 0x68, 0x2e, 0x63, 0x6f, 0x6e, 0x73, 0x74, 0x61,
    0x6e, 0x74, 0x37, 0x00, 0x01, 0x00, 0x00, 0x00, 0x10, 0x00, 0x00, 0x00,
    0x0e, 0xff, 0xff, 0xff, 0x00, 0x00, 0x00, 0x01, 0x10, 0x00, 0x00, 0x00,
    0x10, 0x00, 0x00, 0x00, 0x08, 0x00, 0x00, 0x00, 0x1c, 0x00, 0x00, 0x00,
    0x08, 0xfe, 0xff, 0xff, 0x0f, 0x00, 0x00, 0x00, 0x61, 0x72, 0x69, 0x74,
    0x68, 0x2e, 0x63, 0x6f, 0x6e, 0x73, 0x74, 0x61, 0x6e, 0x74, 0x36, 0x00,
    0x01, 0x00, 0x00, 0x00, 0x20, 0x00, 0x00, 0x00, 0x46, 0xff, 0xff, 0xff,
    0x00, 0x00, 0x00, 0x01, 0x10, 0x00, 0x00, 0x00, 0x10, 0x00, 0x00, 0x00,
    0x07, 0x00, 0x00, 0x00, 0x1c, 0x00, 0x00, 0x00, 0x40, 0xfe, 0xff, 0xff,
    0x0f, 0x00, 0x00, 0x00, 0x61, 0x72, 0x69, 0x74, 0x68, 0x2e, 0x63, 0x6f,
    0x6e, 0x73, 0x74, 0x61, 0x6e, 0x74, 0x35, 0x00, 0x01, 0x00, 0x00, 0x00,
    0x10, 0x00, 0x00, 0x00, 0x7e, 0xff, 0xff, 0xff, 0x00, 0x00, 0x00, 0x01,
    0x10, 0x00, 0x00, 0x00, 0x10, 0x00, 0x00, 0x00, 0x06, 0x00, 0x00, 0x00,
    0x1c, 0x00, 0x00, 0x00, 0x78, 0xfe, 0xff, 0xff, 0x0f, 0x00, 0x00, 0x00,
    0x61, 0x72, 0x69, 0x74, 0x68, 0x2e, 0x63, 0x6f, 0x6e, 0x73, 0x74, 0x61,
    0x6e, 0x74, 0x34, 0x00, 0x04, 0x00, 0x00, 0x00, 0x08, 0x00, 0x00, 0x00,
    0x01, 0x00, 0x00, 0x00, 0x0d, 0x00, 0x00, 0x00, 0x01, 0x00, 0x00, 0x00,
    0xc2, 0xff, 0xff, 0xff, 0x00, 0x00, 0x00, 0x01, 0x10, 0x00, 0x00, 0x00,
    0x10, 0x00, 0x00, 0x00, 0x05, 0x00, 0x00, 0x00, 0x1c, 0x00, 0x00, 0x00,
    0xbc, 0xfe, 0xff, 0xff, 0x0f, 0x00, 0x00, 0x00, 0x61, 0x72, 0x69, 0x74,
    0x68, 0x2e, 0x63, 0x6f, 0x6e, 0x73, 0x74, 0x61, 0x6e, 0x74, 0x33, 0x00,
    0x02, 0x00, 0x00, 0x00, 0x03, 0x00, 0x00, 0x00, 0x10, 0x00, 0x00, 0x00,
    0x00, 0x00, 0x16, 0x00, 0x18, 0x00, 0x14, 0x00, 0x00, 0x00, 0x10, 0x00,
    0x0c, 0x00, 0x08, 0x00, 0x00, 0x00, 0x00, 0x00, 0x00, 0x00, 0x07, 0x00,
    0x16, 0x00, 0x00, 0x00, 0x00, 0x00, 0x00, 0x01, 0x10, 0x00, 0x00, 0x00,
    0x10, 0x00, 0x00, 0x00, 0x04, 0x00, 0x00, 0x00, 0x1c, 0x00, 0x00, 0x00,
    0x10, 0xff, 0xff, 0xff, 0x0f, 0x00, 0x00, 0x00, 0x61, 0x72, 0x69, 0x74,
    0x68, 0x2e, 0x63, 0x6f, 0x6e, 0x73, 0x74, 0x61, 0x6e, 0x74, 0x32, 0x00,
    0x02, 0x00, 0x00, 0x00, 0x10, 0x00, 0x00, 0x00, 0x20, 0x00, 0x00, 0x00,
    0xc6, 0xff, 0xff, 0xff, 0x00, 0x00, 0x00, 0x01, 0x14, 0x00, 0x00, 0x00,
    0x14, 0x00, 0x00, 0x00, 0x03, 0x00, 0x00, 0x00, 0x00, 0x00, 0x00, 0x02,
    0x1c, 0x00, 0x00, 0x00, 0x50, 0xff, 0xff, 0xff, 0x0f, 0x00, 0x00, 0x00,
    0x61, 0x72, 0x69, 0x74, 0x68, 0x2e, 0x63, 0x6f, 0x6e, 0x73, 0x74, 0x61,
    0x6e, 0x74, 0x31, 0x00, 0x00, 0x00, 0x00, 0x00, 0x00, 0x00, 0x16, 0x00,
    0x1c, 0x00, 0x18, 0x00, 0x17, 0x00, 0x10, 0x00, 0x0c, 0x00, 0x08, 0x00,
    0x00, 0x00, 0x00, 0x00, 0x00, 0x00, 0x07, 0x00, 0x16, 0x00, 0x00, 0x00,
    0x00, 0x00, 0x00, 0x01, 0x14, 0x00, 0x00, 0x00, 0x14, 0x00, 0x00, 0x00,
    0x02, 0x00, 0x00, 0x00, 0x00, 0x00, 0x00, 0x02, 0x1c, 0x00, 0x00, 0x00,
    0xa0, 0xff, 0xff, 0xff, 0x0e, 0x00, 0x00, 0x00, 0x61, 0x72, 0x69, 0x74,
    0x68, 0x2e, 0x63, 0x6f, 0x6e, 0x73, 0x74, 0x61, 0x6e, 0x74, 0x00, 0x00,
    0x00, 0x00, 0x00, 0x00, 0x00, 0x00, 0x16, 0x00, 0x1c, 0x00, 0x18, 0x00,
    0x00, 0x00, 0x14, 0x00, 0x10, 0x00, 0x0c, 0x00, 0x00, 0x00, 0x00, 0x00,
    0x08, 0x00, 0x07, 0x00, 0x16, 0x00, 0x00, 0x00, 0x00, 0x00, 0x00, 0x01,
    0x14, 0x00, 0x00, 0x00, 0x24, 0x00, 0x00, 0x00, 0x24, 0x00, 0x00, 0x00,
    0x01, 0x00, 0x00, 0x00, 0x40, 0x00, 0x00, 0x00, 0x03, 0x00, 0x00, 0x00,
    0xff, 0xff, 0xff, 0xff, 0x80, 0x3e, 0x00, 0x00, 0x01, 0x00, 0x00, 0x00,
    0x04, 0x00, 0x04, 0x00, 0x04, 0x00, 0x00, 0x00, 0x1e, 0x00, 0x00, 0x00,
    0x73, 0x65, 0x72, 0x76, 0x69, 0x6e, 0x67, 0x5f, 0x64, 0x65, 0x66, 0x61,
    0x75, 0x6c, 0x74, 0x5f, 0x6b, 0x65, 0x72, 0x61, 0x73, 0x5f, 0x74, 0x65,
    0x6e, 0x73, 0x6f, 0x72, 0x3a, 0x30, 0x00, 0x00, 0x03, 0x00, 0x00, 0x00,
    0x01, 0x00, 0x00, 0x00, 0x80, 0x3e, 0x00, 0x00, 0x01, 0x00, 0x00, 0x00,
    0x07, 0x00, 0x00, 0x00, 0x80, 0x00, 0x00, 0x00, 0x60, 0x00, 0x00, 0x00,
    0x44, 0x00, 0x00, 0x00, 0x34, 0x00, 0x00, 0x00, 0x24, 0x00, 0x00, 0x00,
    0x14, 0x00, 0x00, 0x00, 0x04, 0x00, 0x00, 0x00, 0xa8, 0xff, 0xff, 0xff,
    0x19, 0x00, 0x00, 0x00, 0x00, 0x00, 0x00, 0x19, 0xb4, 0xff, 0xff, 0xff,
    0x09, 0x00, 0x00, 0x00, 0x00, 0x00, 0x00, 0x09, 0xc0, 0xff, 0xff, 0xff,
    0x28, 0x00, 0x00, 0x00, 0x00, 0x00, 0x00, 0x28, 0xcc, 0xff, 0xff, 0xff,
    0x11, 0x00, 0x00, 0x00, 0x00, 0x00, 0x00, 0x11, 0xd8, 0xff, 0xff, 0xff,
    0x16, 0x00, 0x00, 0x00, 0x00, 0x00, 0x00, 0x16, 0x0c, 0x00, 0x10, 0x00,
    0x0f, 0x00, 0x00, 0x00, 0x08, 0x00, 0x04, 0x00, 0x0c, 0x00, 0x00, 0x00,
    0x03, 0x00, 0x00, 0x00, 0x05, 0x00, 0x00, 0x00, 0x00, 0x00, 0x00, 0x03,
    0x0c, 0x00, 0x0c, 0x00, 0x0b, 0x00, 0x00, 0x00, 0x00, 0x00, 0x04, 0x00,
    0x0c, 0x00, 0x00, 0x00, 0x46, 0x00, 0x00, 0x00, 0x00, 0x00, 0x00, 0x46
};

unsigned int NEW_MODEL_79_percent_len = 15360;
